i n 49500
a n 47395
a r 31260
e s 30665
d e</w> 27880
in g</w> 27138
d o</w> 25774
e n 25541
m a</w> 23466
c o 23067
e m</w> 22114
e r 20559
h o 17984
r e 17494
c a 17328
r o 17204
i t 16980
m a 16778
t h 16583
es t 16578
u ma</w> 16297
u m</w> 15647
i n</w> 15344
a s</w> 14986
a l 13711
i s</w> 13585
s t 13162
an do</w> 13029
e r</w> 12817
l a 12785
d o 12331
U m</w> 12181
r a 12040
ma n</w> 11188
e l 10730
t o</w> 10151
th e</w> 9929
r i 9725
o n</w> 9481
u n 9411
l o 9260
i r 9188
co m</w> 8882
l e</w> 8531
u l 8504
ho m 8437
en t 8363
an d</w> 8350
q u 8340
a t 8312
b o 8300
s o 8215
c h 8163
e s</w> 7959
est á</w> 7928
e t 7210
e .</w> 7120
a .</w> 7082
i c 7066
p ar 7005
o r 6914
o f</w> 6899
hom em</w> 6711
a d 6259
U ma</w> 6227
w it 6223
wit h</w> 6171
s .</w> 6155
u r 5951
ã o</w> 5951
t o 5834
s e 5801
p e 5634
o n 5629
ca m 5492
r u 5349
i l 5334
w o 5179
m ul 5149
an d 5045
a c 4984
h er</w> 4922
s i 4895
p o 4875
u t 4866
v er 4825
w h 4811
i s 4807
a t</w> 4574
n a</w> 4548
m e 4371
b r 4354
k ing</w> 4133
p la 3993
o l 3972
d a</w> 3965
b e 3951
s h 3875
w o</w> 3875
l i 3818
ar e</w> 3798
es so 3788
a m 3760
j o 3741
o p 3688
wo man</w> 3655
d e 3643
mul her</w> 3473
a n</w> 3423
g u 3390
w e 3389
o un 3385
o s</w> 3367
p esso 3354
m en 3348
ho r 3343
b al 3342
par a</w> 3330
d i 3294
r o</w> 3259
a s 3225
w al 3159
ro u 3117
T wo</w> 3116
c ar 3100
o .</w> 3099
n e 3099
n o</w> 3097
t i 3066
f o 3033
t a 3030
est ão</w> 2990
p er 2965
l e 2932
op le</w> 2923
an ç 2888
o ut 2885
in h 2844
c k</w> 2808
m p 2799
a r</w> 2789
a do 2784
pla y 2767
cam is 2747
it t 2740
ar ing</w> 2721
sh ir 2703
a z 2701
b l 2640
s ent 2629
we aring</w> 2620
v est 2601
p re 2586
d ing</w> 2581
an c 2576
in do</w> 2545
g ra 2512
pesso as</w> 2508
me n</w> 2503
u s 2495
in g 2491
f or 2444
an to</w> 2405
co r 2390
c i 2378
qu anto</w> 2369
a o</w> 2348
en quanto</w> 2348
pe ople</w> 2348
a p 2340
p o</w> 2330
T h 2304
w n</w> 2301
s e</w> 2291
co n 2291
it e</w> 2291
men in 2291
camis a</w> 2291
an t 2289
m o 2277
s u 2264
oun g</w> 2260
en do</w> 2221
g e</w> 2211
st and 2177
el h 2163
shir t</w> 2151
e d</w> 2147
g ir 2140
f ro 2138
a do</w> 2126
i le</w> 2120
wh ite</w> 2108
t ra 2099
re d</w> 2090
b la 2088
y oung</w> 2055
t a</w> 2022
r es 2017
v i 2003
a i 1988
ri anç 1982
h is</w> 1969
a l</w> 1960
ent e</w> 1947
en s</w> 1934
wh ile</w> 1931
bla ck</w> 1920
w at 1917
u e</w> 1894
ca c 1845
c rianç 1825
a m</w> 1824
d .</w> 1815
bl ue</w> 1808
D o 1804
e i 1789
lo o 1782
u as</w> 1768
itt ing</w> 1745
Do is</w> 1742
cac hor 1728
g ar 1727
ad a</w> 1724
re e 1722
s itting</w> 1715
bo y</w> 1704
es .</w> 1695
ver m 1688
jo g 1686
er .</w> 1684
ch il 1675
la do</w> 1672
l ar 1656
ho l 1656
g ur 1620
gir l</w> 1616
ac k 1604
po r</w> 1593
stand ing</w> 1592
m ar 1578
play ing</w> 1578
se gur 1570
ru po</w> 1555
u l</w> 1552
do .</w> 1548
do g</w> 1542
rou p</w> 1539
b u 1537
th er</w> 1530
f i 1529
c u 1528
er s</w> 1526
ol h 1522
l et 1511
a g 1508
br anc 1506
ing .</w> 1501
g rupo</w> 1497
cam inh 1479
g roup</w> 1477
n o 1474
k s</w> 1457
ca l 1444
hom ens</w> 1424
f r 1414
cachor ro</w> 1409
jo v 1406
verm elh 1403
D uas</w> 1393
d a 1380
on e</w> 1380
qu e</w> 1379
s k 1357
o u 1346
do wn</w> 1340
ir a</w> 1332
wal king</w> 1332
b y</w> 1326
m .</w> 1326
fro n 1321
m e</w> 1320
b i 1306
t e 1304
p i 1291
r an 1289
fron t</w> 1279
bo l 1269
b ic 1267
p a 1267
c ando</w> 1263
az ul</w> 1257
fr ente</w> 1253
g h 1244
ro s 1244
el a</w> 1242
t s</w> 1240
gar o 1233
hol ding</w> 1231
vest indo</w> 1228
vest i 1219
re e</w> 1215
j u 1214
menin o</w> 1210
k .</w> 1203
y .</w> 1188
c a</w> 1169
h er 1166
re s</w> 1165
r a</w> 1140
p as 1140
m er 1140
d res 1126
br in 1124
bal l</w> 1122
v e</w> 1116
d es 1109
d er</w> 1108
ê s</w> 1108
st a</w> 1103
si de</w> 1099
w a 1096
segur ando</w> 1094
s ho 1093
á gu 1092
lo n 1089
cal ç 1088
o ther</w> 1078
b ro 1075
b ar 1068
p ra 1067
ro un 1067
r ês</w> 1061
jov em</w> 1059
et .</w> 1052
s ,</w> 1044
d s</w> 1044
Th e</w> 1039
w or 1033
y ing</w> 1029
g h</w> 1018
ic let 1010
co mp 1002
l .</w> 998
m i 995
t er 993
cor r 988
s s 985
b a 984
j e 978
t ing</w> 977
mul her 966
r un 959
pre to</w> 956
u p</w> 945
p in 944
ai r</w> 941
crianç a</w> 941
ra .</w> 937
loo king</w> 937
ree n</w> 930
ca s 922
e t</w> 920
A n</w> 918
sent ado</w> 917
itt le</w> 914
p ul 911
s no 910
ma l 910
fo r</w> 909
ã o.</w> 907
st ru 904
m an 903
g reen</w> 901
branc o</w> 901
bo ar 900
ro s</w> 897
ç ão</w> 896
un i 885
c o</w> 884
p ro 884
o b 882
it s</w> 882
el o</w> 879
g roun 878
co lo 873
st re 870
lo w</w> 870
ran de</w> 870
p r 866
ro w 866
bal h 865
am ar 859
Th ree</w> 855
m b 854
m ent 854
T rês</w> 854
wo men</w> 854
g rande</w> 853
v e 852
t .</w> 850
h i 850
olh ando</w> 849
a ,</w> 847
a s.</w> 847
á ri 844
mulher es</w> 844
l ittle</w> 841
ru a</w> 841
d as</w> 840
and ando</w> 840
bic iclet 839
f e 835
rou gh</w> 831
se u</w> 830
v er</w> 829
f lo 825
s er 821
sk at 821
k e</w> 820
p ho 817
h e 813
th rough</w> 812
chil d</w> 812
b ri 808
c e</w> 807
ju mp 805
lar ge</w> 802
s al 801
po s 799
b ack 798
ado r</w> 797
ap é 794
tra balh 790
y el 788
m u 782
g o</w> 782
qu et 779
t ur 775
s on</w> 773
ch apé 772
crianç as</w> 769
br an 765
m es 764
se d</w> 762
per to</w> 762
n i 760
t wo</w> 759
j a</w> 757
yel low</w> 754
ree t</w> 751
us ando</w> 750
c h</w> 747
su a</w> 747
e x 744
bro wn</w> 739
y c 736
pas s 736
m on 734
s hor 734
o f 733
d a.</w> 732
ad as</w> 732
a v 730
d re 730
st reet</w> 730
mar ro 727
r est 725
ei r</w> 725
in to</w> 724
fro m</w> 724
in a</w> 723
th eir</w> 723
ca b 716
t e</w> 715
do s</w> 710
garo ta</w> 710
re .</w> 707
an s</w> 703
d e.</w> 701
fo o 700
c k 699
ado s</w> 698
l y</w> 697
t al 697
ant e</w> 696
cu lo 696
g e 695
co .</w> 695
t ic 694
par e 694
p u 693
bu il 693
so r 689
c e 688
r á 683
a ir 682
f az 680
o m 679
qu i 679
sno w 678
dre n</w> 677
n ing</w> 673
bol a</w> 673
uni for 672
y s</w> 670
per son</w> 669
inh o</w> 668
x t</w> 664
mal l</w> 664
out side</w> 662
ne xt</w> 660
t ri 659
pesso a</w> 653
stre et.</w> 653
s ur 649
ch .</w> 646
ver s 643
chapé u</w> 641
bo l</w> 639
c lo 638
c row 637
j ack 637
dres sed</w> 637
l s</w> 636
g la 636
p al 633
h at</w> 631
la .</w> 631
m il 630
s a 626
s mall</w> 626
mul ti 624
rou p 622
c er 621
t u 615
re g 614
qu en 614
p é</w> 613
p ela</w> 612
P e 610
p or 603
r in 602
ut e 602
vesti do</w> 602
o ver</w> 601
t or 600
ad a.</w> 599
f ute 597
s w 593
ou t</w> 593
branc a</w> 592
v a</w> 591
ó culo 591
b as 590
qu e 590
vermelh o</w> 590
ca .</w> 588
groun d.</w> 588
g o 587
f un 586
for a</w> 585
wal k</w> 582
ri ding</w> 581
to s</w> 580
chil dren</w> 580
ar .</w> 579
co l 579
biciclet a</w> 579
si de 578
p ic 577
d y</w> 577
v en 574
Pe ople</w> 574
pe quen 573
m ic 572
to cando</w> 569
j a 567
d u 567
h in 567
ca v 565
ne ar</w> 565
marro m</w> 565
on .</w> 564
ar oun 562
o r</w> 561
ver de</w> 560
corr endo</w> 560
p le</w> 558
l ing</w> 557
run ning</w> 556
fi el 555
t re 552
rá s</w> 552
g s</w> 549
b er 543
a si 542
c in 542
wat er.</w> 542
pho n 541
or an 540
brin cando</w> 539
óculo s</w> 539
ac h</w> 538
out ro</w> 538
c an 537
so me</w> 537
caminh ando</w> 536
lar an 535
t er</w> 532
pra i 532
aroun d</w> 532
li st 531
gu it 531
li v 530
gla ss 530
c ur 527
d er 527
con vers 523
l u 522
sent ada</w> 521
an other</w> 519
vermelh a</w> 518
gh t</w> 518
t as</w> 517
c it 515
m et 515
ca p 515
ir o</w> 515
car r 515
h and 514
jog ando</w> 513
multi d 513
f il 511
th ing</w> 511
ob ser 510
ho s</w> 509
ro .</w> 509
m ing</w> 508
ch e 508
to p</w> 508
el e 507
oran ge</w> 507
h a</w> 505
ma is</w> 505
águ a.</w> 505
wat er</w> 504
faz endo</w> 504
f ac 503
t ando</w> 502
v elh 502
je ans</w> 499
ch ing</w> 498
ru a.</w> 498
é di 496
b and 493
d d 493
ra da</w> 493
ja quet 493
a d</w> 492
H om 492
u s</w> 491
f al 491
stand s</w> 491
be hin 489
Hom em</w> 489
s its</w> 488
b en 487
cav al 486
jack et</w> 485
s en 484
ma le</w> 484
br e</w> 483
so me 481
t an 480
jump ing</w> 480
gra s 478
pin k</w> 478
i t</w> 477
do r</w> 477
to .</w> 477
b an 476
ç a</w> 474
per for 474
águ a</w> 474
s mil 473
co st 473
l e.</w> 470
t r 468
pul ando</w> 468
c li 464
s un 464
menin a</w> 464
p ing</w> 463
d ur 463
co s</w> 463
pre ta</w> 463
ado res</w> 462
behin d</w> 462
s c 461
l in 458
h as</w> 458
á r 458
at rás</w> 456
be i 456
v e.</w> 455
so bre</w> 455
ma s</w> 453
at i 453
v o 449
pre par 449
' s</w> 447
mic ro 447
be b 446
fute bol</w> 446
do is</w> 443
jaquet a</w> 442
al .</w> 441
b le</w> 440
t ent 438
me i 438
g i 436
f ri 436
gra ma 436
pr édi 436
glass es</w> 436
p l 435
t en 434
buil d 434
e n</w> 431
shor ts</w> 431
b ra 430
f a 430
et e</w> 430
de d</w> 430
re ad 429
asi á 428
A s</w> 427
co u 424
M an</w> 422
th e 422
on g</w> 420
cam er 420
loo ks</w> 420
c â 419
con stru 419
h el 418
st and</w> 418
bic yc 417
d anc 415
sent adas</w> 415
oun ta 414
e ,</w> 413
ç o</w> 413
ad ul 412
laran ja</w> 412
n as</w> 411
car reg 410
at ro</w> 409
m s</w> 407
câ mer 407
wo o 406
ver al</w> 406
d anç 404
ic i 404
es ca 403
mes a</w> 403
ar d</w> 402
be a 402
gir ls</w> 402
c re 401
ai x 401
si st 400
sen hor 400
play er</w> 399
vi ol 399
a ur 396
p at 395
cam po</w> 395
ros a</w> 395
bal l.</w> 394
c er</w> 391
f er 390
S e 390
pe d</w> 390
c ti 388
d ad 388
h air</w> 388
mo to 388
rest aur 388
e qui 387
d el 387
th at</w> 387
po l 387
r as</w> 386
pe d 384
d es</w> 383
d is 383
so c 383
w in 381
segur a</w> 380
ac k</w> 379
pla y</w> 378
crow d</w> 378
obser v 378
equi p 378
al g 377
g am 375
s a</w> 374
d ent 373
P esso 373
ho .</w> 373
i m 372
do gs</w> 372
back ground.</w> 372
st o 370
g a 369
g et 369
er e</w> 369
ros s</w> 369
multid ão</w> 369
m ã 368
al ong</w> 368
ol der</w> 368
o ce 367
as sist 367
wal ks</w> 367
of f</w> 366
p en 365
roup as</w> 365
d uas</w> 364
k i 363
ca be 363
fun do.</w> 363
to ge 361
bi ke</w> 360
b lon 359
an do.</w> 359
bo ys</w> 358
dres s</w> 358
j un 357
c el 355
cor ri 355
ca de 354
la dy</w> 354
sent ados</w> 354
jog ador</w> 354
da de</w> 354
ic a</w> 353
el os</w> 352
wor king</w> 351
v el 350
A si 349
r e</w> 345
f on 345
in stru 345
o ,</w> 344
o s.</w> 344
p .</w> 344
ro l 344
build ing.</w> 344
e boar 343
z a</w> 343
ar e 343
us a</w> 343
o m</w> 341
di re 341
bi k 341
wor k 341
cap ac 341
ca r</w> 340
ta ble</w> 340
M ul 339
as ,</w> 339
mu it 339
senhor a</w> 339
o th 337
ic e</w> 337
play s</w> 337
az ul 337
co ber 335
p on 334
gra y</w> 333
tal king</w> 332
in .</w> 330
st ri 330
ne ve.</w> 330
res ent 330
s pe 329
trabalh ando</w> 329
co m 328
ou r</w> 328
b e</w> 327
m in 327
es c 327
p ant 326
v ar 326
Asi an</w> 325
c e.</w> 324
n is</w> 324
v ing</w> 324
Q u 324
car a</w> 324
tur e</w> 324
soc cer</w> 324
h il 323
olh a</w> 323
í ci 322
ac i 322
hol ds</w> 322
c k.</w> 321
velh o</w> 321
es cu 320
calç ada</w> 320
t ru 319
g a</w> 319
re l 319
h o</w> 318
menin os</w> 317
pare de</w> 317
ol d</w> 316
pa in 316
f f 315
inh a</w> 315
he ad 315
sur f 315
a bo 314
n e</w> 314
F our</w> 314
ca m</w> 314
cit y</w> 314
Qu atro</w> 314
s t</w> 313
n .</w> 313
garo t 313
wa y</w> 313
Pesso as</w> 313
v es 312
calç a</w> 311
skat eboar 311
V ári 310
par ado</w> 309
jov ens</w> 309
p s</w> 308
c ic 307
p is 307
caminh a</w> 307
O s</w> 306
et a</w> 306
m ounta 305
f la 305
b at 304
ac o</w> 304
p ur 303
s o</w> 303
d ir 302
v ol 302
it i 302
si t</w> 301
e at 300
carr ying</w> 300
oce an 300
g g 299
u mb 299
ch u 299
out do 298
shir t 298
cab elo</w> 298
s we 297
h a 297
co mi 297
ado .</w> 297
se us</w> 296
fo to</w> 295
ca n</w> 294
bo o 294
comp et 294
at ra 292
ch es</w> 291
f ul</w> 290
d ar 290
de i 290
men t</w> 286
do r 285
si g 285
verm el 285
m ão</w> 284
e mp 284
es ,</w> 284
mon tan 284
cou ple</w> 284
r ando</w> 283
prédi o</w> 283
b aix 282
st ic 282
c yc 281
t ir 281
k et 281
an i 281
gras s.</w> 281
wal k.</w> 280
some thing</w> 280
Se veral</w> 280
a is</w> 279
s el 279
f en 279
la r</w> 279
cli mb 278
al go</w> 277
su it</w> 277
a ge</w> 276
si de.</w> 276
ci dad 276
es per 275
ch a</w> 275
e ach</w> 274
ta king</w> 274
foo d</w> 274
c ant 273
ca s</w> 273
al i 273
b anc 272
ag a 272
t ed</w> 271
prai a.</w> 270
i do 269
s le 269
v es</w> 269
out ra</w> 269
l ut 268
al gu 268
bea ch.</w> 268
so l 266
di f 266
banc o</w> 266
s ing 265
w ing</w> 265
do ing</w> 265
su b 265
ro x 264
mo vi 264
fiel d.</w> 264
b us 263
to w 263
groun d</w> 263
colo ri 263
en to</w> 262
s and 261
d rin 261
ac ross</w> 261
asiá tic 261
side walk</w> 260
mei o</w> 260
vesti da</w> 259
carreg ando</w> 259
b lo 258
f is 258
it .</w> 258
ne ve</w> 258
h at 256
mi dd 256
amar ela</w> 256
amar elo</w> 256
air .</w> 256
o l</w> 255
cab elos</w> 255
in o</w> 254
re a</w> 254
gu ar 254
ei a</w> 254
sal a</w> 254
fiel d</w> 254
co ver 253
sor r 253
de it 252
beb ê</w> 252
j a.</w> 251
ba se 251
pant s</w> 251
l er</w> 250
l es</w> 250
ba by</w> 250
side walk.</w> 250
it ing</w> 249
c ã 248
t at 248
ap resent 248
cas al</w> 248
convers ando</w> 248
smil ing</w> 248
cidad e.</w> 248
cin za</w> 247
ir as</w> 246
ca i 245
t ro 244
jump s</w> 244
pic ture</w> 244
t ball</w> 243
k es</w> 243
co z 243
az u 243
buil ding</w> 243
cabe ça</w> 243
t ê 242
e m.</w> 242
s em</w> 242
á rea</w> 242
cti on</w> 242
ro ck</w> 241
am ento</w> 241
capac ete</w> 241
brin que 240
sw im 240
or e</w> 239
to ca</w> 239
j an 238
e ira</w> 238
f ru 238
n ci 237
ç ão.</w> 237
co o 237
car ro</w> 237
gra ma</w> 237
pequen a</w> 237
bo t 236
av ing</w> 236
d ri 235
qu e.</w> 235
bal anç 235
w .</w> 234
re dor</w> 234
pe g 234
corr e</w> 234
swe at 234
es s</w> 233
se gu 233
wh o</w> 233
be ing</w> 233
am .</w> 233
de n</w> 233
us ing</w> 233
snow boar 233
phon e.</w> 233
- h 232
th .</w> 232
bei se 232
u t</w> 231
ca l</w> 231
cas aco</w> 231
guit ar</w> 231
toge ther</w> 231
blon d</w> 231
fa z</w> 230
stri ped</w> 230
W o 229
ca t 229
camis eta</w> 229
h e</w> 228
an t</w> 228
co let 228
and a</w> 228
mo tor 228
wat ching</w> 228
prai a</w> 228
Mul her</w> 228
st e 227
bo n 227
c ks</w> 226
be ach</w> 226
gu y</w> 226
di a</w> 226
calç ada.</w> 226
perfor ming</w> 226
- se</w> 225
phon e</w> 225
grama .</w> 225
m á 224
f am 224
in c 224
ca do</w> 224
le d</w> 224
sno w</w> 224
fe male</w> 224
snow .</w> 224
cã es</w> 224
d ,</w> 223
un der</w> 223
i g 222
e m 222
lon go</w> 222
c endo</w> 221
t - 221
dir t</w> 221
pul a</w> 220
colo r 220
movi ment 220
t e.</w> 219
b ack</w> 218
a ção</w> 218
un s</w> 218
hi m.</w> 218
bas ket 218
õ es</w> 217
A l 217
par k.</w> 217
p ping</w> 216
g ol 216
en .</w> 216
ch in 216
menin as</w> 216
bicyc le</w> 216
instru ment 216
b ag 215
po st 215
es qu 214
th er 214
lo ira</w> 214
so b</w> 214
po .</w> 214
ci dade</w> 214
skat e</w> 214
pur ple</w> 214
sle e 214
c la 213
v ári 213
tra j 213
dur ante</w> 213
d r 212
en jo 212
ai red</w> 212
roup a</w> 212
win do 212
s li 211
lon g</w> 211
t a.</w> 210
it e.</w> 210
pos ing</w> 210
fac e</w> 210
caval o</w> 210
c ho 209
run s</w> 209
ob je 209
eat ing</w> 209
am ent 208
loo k</w> 208
jog o</w> 208
ár v 208
base ball</w> 208
t rês</w> 207
sor ri 207
unifor me</w> 207
p e</w> 206
M en 206
es p 206
co at</w> 206
co men 206
clo th 206
moto c 206
m es</w> 205
Y oung</w> 205
par t 205
wal l</w> 205
he ad</w> 205
pequen o</w> 205
s ing</w> 204
g r 204
ro ad 204
ta bl 204
-h aired</w> 204
c ut 203
st i 203
fo ra.</w> 203
ag em</w> 203
t em</w> 202
ul l</w> 202
bra ç 202
dif íci 202
er s.</w> 201
est rada</w> 201
ch ão</w> 201
out ros</w> 201
ant e.</w> 201
pe op 200
corri da</w> 200
th ree</w> 199
sh ing</w> 199
flo w 199
bas quet 199
garot inho</w> 199
comi da</w> 199
e difíci 198
wal l.</w> 198
read ing</w> 198
azul .</w> 198
o u</w> 197
gam e</w> 197
cover ed</w> 197
d ando</w> 196
st u 196
Th ere</w> 196
ben ch</w> 196
con t 195
comp ut 195
ár vo 195
b and</w> 194
ô ni 194
J o 194
an o</w> 194
er i 194
pass ando</w> 194
escu ros</w> 194
t ele 193
h u 193
al l</w> 193
dur ing</w> 193
m p</w> 192
an ta 192
caminh am</w> 192
tur a</w> 192
of f 192
foo tball</w> 192
cade ira</w> 192
Vári as</w> 192
motor cyc 192
ne g 191
ci ma</w> 191
met al</w> 191
m ú 190
g ri 190
d s.</w> 190
so f 190
to gra 190
der ly</w> 190
carr inho</w> 190
camer a.</w> 190
câmer a.</w> 190
a u 189
h and</w> 189
ro st 189
mã os</w> 189
p es 188
s endo</w> 188
n s</w> 188
play ers</w> 188
da - 188
p á 187
in st</w> 187
guar da- 187
e y</w> 186
out side.</w> 186
tent ando</w> 186
aga inst</w> 186
S o 185
co ur 185
le an 185
out ras</w> 185
vesti dos</w> 185
cost u 185
dar k</w> 185
s es</w> 184
g .</w> 184
f u 183
ar s</w> 183
ro om</w> 183
ra f 183
bo r 183
is t</w> 183
bar co</w> 183
flo rest 183
umb rel 183
tir ando</w> 183
comen do</w> 183
lo ja</w> 182
ent re</w> 182
bu s</w> 182
f est 181
liv re.</w> 181
b li 180
p ap 180
s be 180
g ing</w> 180
el derly</w> 180
ri des</w> 180
ver de.</w> 180
jog adores</w> 180
gh t.</w> 180
beise bol</w> 180
qu in 179
to r</w> 179
pas t</w> 179
camer a</w> 179
ki ds</w> 179
midd le</w> 179
azu is</w> 179
t es</w> 178
h er.</w> 178
bo at</w> 178
gras s</w> 178
viol ão</w> 178
outdo or</w> 178
guarda- chu 178
c ros 177
do res</w> 177
ten nis</w> 177
algu mas</w> 177
v o</w> 176
H o 176
en t</w> 176
ra ,</w> 176
pi sta</w> 176
é s</w> 175
ag e.</w> 175
pass a</w> 175
shor t</w> 175
O ne</w> 174
ar ds</w> 174
co w 174
ing s</w> 174
pare ce</w> 174
climb ing</w> 174
b y.</w> 173
p elo</w> 173
i sta</w> 173
l h 173
f one</w> 173
h aving</w> 173
é m</w> 173
par que.</w> 173
da s.</w> 173
colo red</w> 173
a f 172
u gh 172
H á</w> 172
ter no</w> 172
the m.</w> 172
woo den</w> 172
muit o</w> 172
l en 171
n a 171
f li 171
ra do</w> 171
con cre 171
ant es</w> 171
câmer a</w> 171
abo ut</w> 171
p il 170
l endo</w> 170
ol .</w> 170
man ,</w> 170
mu si 170
sun glasses</w> 170
the y</w> 170
in di 169
re a 169
par que</w> 169
bran co.</w> 169
atra ves 169
men to</w> 168
le v 168
wa y.</w> 168
wa iting</w> 168
band a</w> 168
road .</w> 168
ma .</w> 167
ing ,</w> 167
mar k 167
guit ar 167
hand s</w> 167
prepar ando</w> 167
asiá ti 167
get ting</w> 167
dire ção</w> 167
motoc iclet 167
do ,</w> 166
ver y</w> 166
pla ca</w> 166
p el 165
su as</w> 165
te mp 165
boar d</w> 165
unifor m</w> 165
ga ther 165
t- shirt</w> 165
mo st 164
gh t 164
tr ying</w> 164
s e.</w> 163
danc ing</w> 163
cel l 163
lean ing</w> 163
e iro</w> 162
bo w 162
o ver 161
o m.</w> 161
st age</w> 161
ch ut 161
fal ando</w> 161
are a.</w> 161
c ul 160
m ando</w> 160
bol .</w> 160
wor k</w> 160
pal co</w> 160
pic tu 160
basket ball</w> 160
g o.</w> 159
h an 159
ro ad</w> 159
ent es</w> 159
li sta</w> 159
work ers</w> 159
baix o</w> 159
color ful</w> 159
ch a 158
me t</w> 158
ári o</w> 158
coz inh 158
C rianç 157
ma dei 157
ra s.</w> 157
sorr indo</w> 157
swim ming</w> 157
par k</w> 156
Th is</w> 156
hel met</w> 156
bus y</w> 156
Wo man</w> 156
m ol 155
ca st 155
cam po.</w> 155
da y.</w> 155
sc ul 155
constru ction</w> 155
danç ando</w> 155
gam e.</w> 155
shirt ,</w> 155
tabl e.</w> 155
ra c 154
ra ce</w> 154
or n 154
clo thing</w> 154
constru ção</w> 154
esca da</w> 154
d ge</w> 153
ó ri 153
y ,</w> 153
re la 153
le ,</w> 153
brin cam</w> 153
biciclet a.</w> 153
pu x 153
traj es</w> 153
a - 152
k it 152
in ter 152
ra l</w> 152
ic o</w> 152
s por 151
g al 151
k ic 151
es cal 151
en a</w> 151
am er 151
di st 151
pi e 151
garo tas</w> 151
c ent 150
p res 150
z ando</w> 150
F i 150
jo lo 150
ti me</w> 150
ti jolo 150
bri lh 150
dent ro</w> 150
ro om.</w> 149
st air 149
la ying</w> 149
ra m</w> 149
qu ad 149
bo la.</w> 149
shir ts</w> 149
sent a</w> 149
lin e</w> 149
brinque do</w> 149
amer ic 149
et s</w> 148
ci gar 148
sk i 148
te am</w> 148
amar el 148
fon e.</w> 148
basquet e</w> 148
i d</w> 147
wat er 147
pos ando</w> 147
Ho men 147
f ica</w> 146
M u 146
re uni 146
to y</w> 146
hor se</w> 146
gra ss 146
cic lista</w> 146
Homen s</w> 146
p an 145
t an</w> 145
m or 145
co un 145
ho us 145
ch air</w> 145
ta r</w> 145
mer g 145
pat in 145
cai x 145
Al gu 145
i de</w> 144
s ai 144
n os</w> 144
M en</w> 144
par tic 144
bl usa</w> 144
madei ra.</w> 144
t ree</w> 143
v as</w> 143
bo dy</w> 143
po ol.</w> 143
wal k 143
cachor ros</w> 143
vesti das</w> 143
des cendo</w> 143
bri ght</w> 143
sur roun 143
gr and 143
m ente</w> 142
de ira</w> 142
caminh o</w> 142
e p</w> 141
n er</w> 141
f l 141
d ra 141
ê nci 141
k e 141
ma king</w> 141
lon g 141
ve get 141
back p 141
list rada</w> 141
e la.</w> 140
e ven 140
ç a.</w> 140
F ri 140
ca f 140
or .</w> 140
wh e 140
pro te 140
hi gh</w> 140
alg uns</w> 140
cant ando</w> 140
bon é</w> 140
d endo</w> 139
w s</w> 139
es co 139
ra da.</w> 139
pe da 139
mo u 139
wat ch 139
partic i 139
f ull</w> 138
th er.</w> 138
el .</w> 138
to s.</w> 138
li mp 138
ta kes</w> 138
sing ing</w> 138
tow ards</w> 138
peg ar</w> 138
cont ra</w> 138
grass y</w> 138
x i 137
ar i 137
ra s 137
ch ão.</w> 137
emp ur 137
fis h 137
í n 136
it a</w> 136
ma i 136
th row 136
ra mp 136
or s</w> 136
be ira</w> 136
ap on 136
aci on 136
enjo ying</w> 136
a ber 135
x ad 135
d - 135
pe c 135
ei ra.</w> 135
bran cos</w> 135
esper ando</w> 135
tê nis</w> 135
Fri sbe 135
a ju 134
p ú 134
n y</w> 134
n ad 134
f anta 134
k ers</w> 134
in side</w> 134
ho o 134
re f 134
ma chin 134
at .</w> 134
be bi 134
car .</w> 134
comp ri 134
multid ão.</w> 134
oth er.</w> 134
xad re 134
fanta si 134
c ina</w> 133
l esc 133
t y</w> 133
e v 133
h a.</w> 133
ri st 133
br a</w> 133
li ght</w> 133
bi g</w> 133
bri ck</w> 133
hand .</w> 133
com o</w> 133
p ut 132
k e.</w> 132
es cur 132
est á 132
est acion 132
ra il 132
am ente</w> 132
pis cina</w> 132
p ran 131
s s</w> 131
s car 131
es qui 131
anc e</w> 131
oth ers</w> 131
asiátic a</w> 131
Mu it 131
ma l</w> 130
ra r</w> 130
wat ch</w> 130
pas se 130
asiátic o</w> 130
togra p 130
m us 129
st age.</w> 129
ut i 129
pro du 129
tri l 129
tre e.</w> 129
read y</w> 129
pie ce</w> 129
ca p</w> 128
at ed</w> 128
so l</w> 128
il y</w> 128
po ol</w> 128
su é 128
ju mp</w> 128
sho pping</w> 128
col ina</w> 128
velh a</w> 128
pis cin 128
mol et 128
C hil 127
an a</w> 127
ou s</w> 127
del e.</w> 127
cober ta</w> 127
mounta in</w> 127
snowboar der</w> 127
Fi ve</w> 127
peda ço</w> 127
b a</w> 126
r .</w> 126
c é 126
C in 126
bo x 126
corr em</w> 126
ati on</w> 126
observ a.</w> 126
sto re.</w> 126
colet e</w> 126
árv ore</w> 126
sti c</w> 126
peop le.</w> 126
Cin co</w> 126
b es 125
c ru 125
s ap 125
v em</w> 125
ado lesc 125
cor po</w> 125
vi e 125
mer cado</w> 125
man .</w> 125
pal co.</w> 125
p e.</w> 124
s and</w> 124
s il 124
s mo 124
ma g 124
to po</w> 124
se veral</w> 124
sh e</w> 124
caminh ão</w> 124
bol sa</w> 124
pho tograp 124
p ri 123
k ed</w> 123
bo ca.</w> 123
fi t</w> 123
ocean .</w> 123
rost o</w> 123
pap er</w> 123
cow boy</w> 123
atraves s 123
c t</w> 122
ar ti 122
la ugh 122
par ada</w> 122
camis as</w> 122
res .</w> 122
brin ca</w> 122
crow d.</w> 122
go ing</w> 122
equip amento</w> 122
m e.</w> 121
k ne 121
an ti 121
la s.</w> 121
se t</w> 121
le a 121
florest a.</w> 121
mou th.</w> 121
molet om</w> 121
m o</w> 120
g re 120
co ,</w> 120
ca ,</w> 120
di ri 120
pr est 120
sig n</w> 120
hat s</w> 120
i v 119
s in 119
í li 119
A mer 119
ar eia</w> 119
ma t 119
ent al</w> 119
at e</w> 119
pe n</w> 119
gra ff 119
man y</w> 119
fute bol.</w> 119
tan k</w> 119
sué ter</w> 119
s coo 118
f ol 118
ho ,</w> 118
to ,</w> 118
on to</w> 118
on al</w> 118
ant .</w> 118
mo chil 118
pra tic 118
ve l</w> 118
met r 118
prédi o.</w> 118
toge ther.</w> 118
Vári os</w> 118
surroun ded</w> 118
xadre z</w> 118
piscin a.</w> 118
t ran 117
s ão</w> 117
v is 117
v és</w> 117
es pec 117
ro s.</w> 117
st ra 117
ra ce.</w> 117
po in 117
li ke</w> 117
out fit</w> 117
ex am 117
snow y</w> 117
guit ar.</w> 117
deit ado</w> 117
b el 116
m er</w> 116
m ão.</w> 116
e l</w> 116
h ard</w> 116
ri z 116
ent e.</w> 116
sh a 116
op er 116
ta s.</w> 116
out h</w> 116
ba g</w> 116
crow ded</w> 116
prest es</w> 116
c lar 115
i va</w> 115
l er 115
ó que 115
it o</w> 115
li f 115
pol ici 115
work er</w> 115
rela x 115
escal ando</w> 115
x o</w> 114
v endo</w> 114
ar t 114
ca da</w> 114
la p 114
ch as 114
on s</w> 114
jog a</w> 114
ck ey</w> 114
cit y.</w> 114
fri en 114
jun tos</w> 114
cloth es</w> 114
bes ide</w> 114
g y 113
g in 113
d in 113
an y</w> 113
es e</w> 113
to dd 113
ne w 113
fo to.</w> 113
vermelh a.</w> 113
pa per 113
trabalh adores</w> 113
mes a.</w> 113
rin do.</w> 113
skateboar d</w> 113
espec ta 113
g er</w> 112
ar ei 112
ri de</w> 112
calç as</w> 112
bran ca.</w> 112
bran cas</w> 112
fri can</w> 112
abo ve</w> 112
ocean o.</w> 112
pran cha</w> 112
c ra 111
p ad 111
u p 111
u r</w> 111
ma deira</w> 111
vi sta</w> 111
sal ta</w> 111
azul ,</w> 111
vermel ho.</w> 111
sub indo</w> 111
d ' 110
ch air 110
men ,</w> 110
no ite.</w> 110
ment .</w> 110
micro fone.</w> 110
corri da.</w> 110
vári as</w> 110
i can</w> 109
h ando</w> 109
th em</w> 109
ch eia</w> 109
liv re</w> 109
obser va</w> 109
ben ch.</w> 109
micro phone.</w> 109
pain ting</w> 109
c ir 108
o pen</w> 108
p it 108
l anç 108
t el 108
s et 108
f ounta 108
ro ck 108
car t</w> 108
tent a</w> 108
pen du 108
spe a 108
spe c 108
aci ma</w> 108
dor m 108
b un 107
g e.</w> 107
v a.</w> 107
es por 107
co le 107
ro w</w> 107
ir e</w> 107
ch ur 107
po se</w> 107
le y 107
gra f 107
da y</w> 107
pr ó 107
ni s.</w> 107
pl an 107
montan ha</w> 107
lev ant 107
cast an 107
sap at 107
óque i</w> 107
f el 106
al to</w> 106
st one</w> 106
ul a</w> 106
for ma</w> 106
tra d 106
tra in</w> 106
pos a</w> 106
fal a</w> 106
carreg a</w> 106
bik e.</w> 106
cic list 106
sweat er</w> 106
mú s 106
gather ed</w> 106
t est 105
e y 105
w el 105
ro ch 105
or s.</w> 105
ru n</w> 105
car ri 105
ei ros</w> 105
sk ir 105
mil it 105
cer ca</w> 105
b em</w> 104
s er</w> 104
w n 104
et es</w> 104
il i 104
bal lo 104
per segu 104
sal to</w> 104
can o 104
árvo re.</w> 104
off ic 104
motociclet a</w> 104
han ging</w> 104
f loo 103
B o 103
ro de 103
do g.</w> 103
at u 103
wat ches</w> 103
trabalh ador</w> 103
ki d</w> 103
head .</w> 103
drin king</w> 103
cat ch</w> 103
vári os</w> 103
arei a.</w> 103
b ir 102
c ão</w> 102
l ,</w> 102
d ru 102
M any</w> 102
at temp 102
am b 102
am p 102
shir t.</w> 102
vi l</w> 102
fac e.</w> 102
prepar ing</w> 102
adul ts</w> 102
bea uti 102
ves t</w> 102
atra vés</w> 102
fam íli 102
braç os</w> 102
ev ent 102
b rea 101
i l</w> 101
l a</w> 101
t ira</w> 101
ar m</w> 101
est rada.</w> 101
st e</w> 101
to u 101
de co 101
ap pe 101
ag ed</w> 101
fun do</w> 101
some th 101
restaur ante</w> 101
f olh 100
re ali 100
ma scul 100
pla id</w> 100
ter ra</w> 100
cas a</w> 100
tri ck</w> 100
muit as</w> 100
gg ing</w> 100
ament o.</w> 100
af ter</w> 100
merg ul 100
mochil a</w> 100
f in 99
di ver 99
ci on 99
mar at 99
r it 98
l ess</w> 98
j orn 98
n di 98
st a.</w> 98
bo ca</w> 98
et te</w> 98
pesso as.</w> 98
ta ke</w> 98
pre para</w> 98
unifor ms</w> 98
alg um</w> 98
Crianç as</w> 98
grand es</w> 98
dorm indo</w> 98
t s.</w> 97
ic h</w> 97
we en</w> 97
gra v 97
cor tando</w> 97
ap ro 97
beb endo</w> 97
fam ily</w> 97
windo w</w> 97
gri l 97
Chil dren</w> 97
Amer ican</w> 97
someth ing.</w> 97
a ch 96
c en 96
t rás</w> 96
v ed</w> 96
ar d.</w> 96
do s.</w> 96
hom en 96
so .</w> 96
di ante</w> 96
le ap 96
su per 96
te en 96
asi an</w> 96
sorr i</w> 96
motorcyc le</w> 96
guarda-chu va</w> 96
whe el 96
Muit as</w> 96
todd ler</w> 96
i a</w> 95
n u 95
g as</w> 95
A frican</w> 95
en ing</w> 95
la v 95
ne d</w> 95
ci vil</w> 95
olh am</w> 95
pr in 95
ni ght.</w> 95
len ço</w> 95
cul o</w> 95
b et 94
m outh</w> 94
er se 94
ri o</w> 94
ent le 94
il .</w> 94
de gra 94
gu ys</w> 94
des er 94
bar ra 94
pra c 94
ter ra.</w> 94
pl ant 94
adul tos</w> 94
pol ice</w> 94
bat eri 94
rac ing</w> 94
ênci a</w> 94
backp ack</w> 94
beauti ful</w> 94
o ri 93
j erse 93
h óquei</w> 93
est ar</w> 93
la go.</w> 93
do es</w> 93
am -se</w> 93
jo elh 93
con ser 93
pal et 93
sun ny</w> 93
are a</w> 93
tru ck</w> 93
sig n.</w> 93
sel ling</w> 93
ôni bus</w> 93
floo r</w> 93
prac tic 93
n umb 92
v ô 92
ó pi 92
ar y</w> 92
ar t</w> 92
so s</w> 92
fo re 92
flo res</w> 92
danc e</w> 92
fen ce.</w> 92
ido so</w> 92
slee ping</w> 92
ã o,</w> 91
k is 91
al s</w> 91
le - 91
bro n 91
unifor mes</w> 91
tre es.</w> 91
cost as</w> 91
cel ul 91
mounta in 91
jan ela</w> 91
fish ing</w> 91
r en 90
l ist</w> 90
t in 90
u .</w> 90
h ap 90
z e 90
k et</w> 90
in e</w> 90
in ver 90
al e 90
st rol 90
at a</w> 90
at s</w> 90
ch ei 90
et ,</w> 90
anc e.</w> 90
te am 90
pi lo 90
hi m</w> 90
foo d.</w> 90
ge ar</w> 90
tre m.</w> 90
smil ing.</w> 90
ped est 90
cabe ça.</w> 90
obje to</w> 90
partici p 90
put ting</w> 90
pratic ando</w> 90
ciclist as</w> 90
n o.</w> 89
g entle 89
d ers</w> 89
h ic 89
" .</w> 89
k er</w> 89
ho ckey</w> 89
st as</w> 89
st ore</w> 89
qu ar 89
at ing</w> 89
par a 89
de la.</w> 89
di es</w> 89
anç a</w> 89
wat ch.</w> 89
bu s.</w> 89
boar d.</w> 89
ve í 89
pu shing</w> 89
ati on.</w> 89
restaur ant.</w> 89
tir e</w> 89
bot h</w> 89
Jo vem</w> 89
pictu re.</w> 89
watch es.</w> 89
throw ing</w> 89
famíli a</w> 89
g lo 88
ar ms</w> 88
es t</w> 88
en so 88
bo m 88
pla t 88
us t</w> 88
cor re 88
chil dr 88
ou vi 88
skat e.</w> 88
mic ros 88
smil es</w> 88
restaur ant</w> 88
equip e</w> 88
vol ley 88
stic k</w> 88
moviment ada</w> 88
mark et.</w> 88
bet ween</w> 88
b bl 87
i o</w> 87
l o</w> 87
s a.</w> 87
v a 87
w i 87
ú n 87
ch i 87
pre tos</w> 87
des en 87
liv ro</w> 87
sc en 87
micro fone</w> 87
observ ando</w> 87
mounta in.</w> 87
ha ve</w> 87
boo k</w> 87
colet es</w> 87
moviment ada.</w> 87
So me</w> 87
palet ó</w> 87
j ando</w> 86
g ando</w> 86
d ente</w> 86
en cost 86
co is 86
er ,</w> 86
lo ja.</w> 86
qu ina</w> 86
qu atro</w> 86
am e</w> 86
fo ra,</w> 86
sent am-se</w> 86
con cer 86
vermelh as</w> 86
pa pe 86
trabalh a</w> 86
pl á 86
cade iras</w> 86
var i 86
garot inha</w> 86
comi da.</w> 86
caix a</w> 86
Frisbe e</w> 86
enso lar 86
b ar</w> 85
c le 85
p s.</w> 85
m ir 85
õ es.</w> 85
f et 85
h ar 85
z .</w> 85
ô .</w> 85
y oun 85
O l 85
ch ed</w> 85
par ti 85
ver des</w> 85
as t</w> 85
fo ur</w> 85
bu ck 85
sho ul 85
pin tando</w> 85
ve hic 85
chapé us</w> 85
mei a- 85
adul t</w> 85
danç a</w> 85
assist indo</w> 85
má quina</w> 85
Men ina</w> 85
Men ino</w> 85
d- hair</w> 85
está tu 85
vô le 85
c est 84
s us 84
w n.</w> 84
or es.</w> 84
sh e 84
di o</w> 84
car as</w> 84
fo tos</w> 84
le ad 84
sho w</w> 84
bar .</w> 84
pos es</w> 84
por ta</w> 84
tor no</w> 84
capac etes</w> 84
tru que</w> 84
shirt less</w> 84
sand .</w> 84
bot t 84
windo w.</w> 84
Algu mas</w> 84
exam in 84
b ru 83
p ô 83
wh ich</w> 83
pla stic</w> 83
ti po</w> 83
da ,</w> 83
cas a.</w> 83
pho to</w> 83
tal l</w> 83
ven de 83
ido sa</w> 83
árvo res</w> 83
musi c</w> 83
mús ica</w> 83
a qu 82
c em</w> 82
p resent 82
e iras</w> 82
ro b 82
ro cho 82
la dies</w> 82
un der 82
pre tas</w> 82
gar raf 82
her es</w> 82
back ground</w> 82
pu bli 82
laran ja.</w> 82
micro phone</w> 82
viol ão.</w> 82
mú si 82
sai a</w> 82
a way</w> 81
n ú 81
h al 81
ho s.</w> 81
ma cac 81
fi re 81
bar ba</w> 81
pro je 81
sor rindo.</w> 81
faz er</w> 81
cer ve 81
sw ing</w> 81
tr em</w> 81
ped ra.</w> 81
apresent ando</w> 81
coz inha</w> 81
pú bli 81
nad ando</w> 81
publi c</w> 81
nú mer 81
c ri 80
j ust</w> 80
g et</w> 80
z es</w> 80
k s.</w> 80
C on 80
el e</w> 80
ur o</w> 80
il u 80
sh i 80
sh es</w> 80
ado r.</w> 80
tre es</w> 80
esper a</w> 80
inc lu 80
costu me</w> 80
celul ar.</w> 80
a joelh 79
i x 79
m po 79
e qu 79
d á</w> 79
v indo</w> 79
T ra 79
wh it 79
is h</w> 79
wor ks</w> 79
mal es</w> 79
restaur ante.</w> 79
Mul heres</w> 79
dor .</w> 79
em ,</w> 79
r inho</w> 78
c king</w> 78
p y</w> 78
i dade</w> 78
l and 78
t er.</w> 78
y ard.</w> 78
in a.</w> 78
ar es</w> 78
co sta</w> 78
ro cha</w> 78
ri ver 78
for ma 78
tra ck.</w> 78
fil a</w> 78
lin ed</w> 78
assist em.</w> 78
cober to</w> 78
esc ul 78
hil l.</w> 78
balanç o</w> 78
coun tr 78
even to</w> 78
new s 78
numb er</w> 78
sus pen 78
l ê</w> 77
v it 77
co res</w> 77
est ru 77
la ke.</w> 77
do u 77
bo at.</w> 77
par ados</w> 77
pe ix 77
wh ere</w> 77
cachor rinho</w> 77
águ as</w> 77
colo cando</w> 77
sa indo</w> 77
hil l</w> 77
tow ard</w> 77
tê nis.</w> 77
árv ores.</w> 77
kit ch 77
veget a 77
especta dores</w> 77
pape l</w> 77
i m</w> 76
u lar</w> 76
el e.</w> 76
on de</w> 76
ta ,</w> 76
le f 76
ado s.</w> 76
cor da</w> 76
mer ca 76
des ce</w> 76
cin z 76
ele c 76
rox a</w> 76
barra ca</w> 76
ilu min 76
t elh 75
P er 75
E ste</w> 75
la ,</w> 75
el s</w> 75
ad as.</w> 75
se ated</w> 75
ne ar 75
bl an 75
pre to.</w> 75
ai s.</w> 75
des li 75
ss ar 75
man 's</w> 75
ob st 75
pare de.</w> 75
sa col 75
hand s.</w> 75
read s</w> 75
vermel hos</w> 75
cut ting</w> 75
edifíci o.</w> 75
hous e.</w> 75
scar f</w> 75
Tra balh 75
l es.</w> 74
e ca</w> 74
g indo</w> 74
f aix 74
f ire</w> 74
h as 74
in f 74
lo t</w> 74
ch e</w> 74
par te</w> 74
ing s.</w> 74
tra in.</w> 74
jog am</w> 74
pul ling</w> 74
fil led</w> 74
sc ho 74
fri can 74
pat h</w> 74
ped ra</w> 74
pen has 74
deit ada</w> 74
tat u 74
peg ando</w> 74
sweat shirt</w> 74
cell phone.</w> 74
bron ze 74
s pra 73
d -haired</w> 73
G ir 73
L ittle</w> 73
co s.</w> 73
co me 73
lo iro</w> 73
be ard</w> 73
ta m</w> 73
us e</w> 73
mar ci 73
ros a.</w> 73
je an 73
man o 73
foo t</w> 73
gla ss</w> 73
ven dendo</w> 73
perfor m 73
bra ço</w> 73
hel met 73
win ter</w> 73
compet iti 73
tele fone</w> 73
neg ro</w> 73
pá ssar 73
a th 72
e - 72
w rest 72
C o 72
est en 72
do n 72
on da</w> 72
wh at</w> 72
pesso as,</w> 72
cor redor</w> 72
segur ança</w> 72
fi sta</w> 72
fi cam</w> 72
sho p.</w> 72
stru c 72
ex i 72
lin e.</w> 72
grama do.</w> 72
dar k 72
tat to 72
limp ando</w> 72
empur rando</w> 72
vie w</w> 72
sapat os</w> 72
deco ra 72
appe ars</w> 72
le- aged</w> 72
a braç 71
c ross</w> 71
o s,</w> 71
l s.</w> 71
t ing.</w> 71
w ai 71
k ing.</w> 71
ar ded</w> 71
en ,</w> 71
lo cal</w> 71
ur a</w> 71
me d</w> 71
am bo 71
play ground.</w> 71
bl u 71
us es</w> 71
vi de 71
sho wing</w> 71
pro f 71
marro m.</w> 71
adul to</w> 71
pon te</w> 71
tru ck.</w> 71
coo king</w> 71
obje ct</w> 71
sorri dente</w> 71
cros sing</w> 71
guitar ra</w> 71
tijolo s</w> 71
tijolo s.</w> 71
paper .</w> 71
event .</w> 71
kitch en.</w> 71
p ó 70
t indo</w> 70
m ,</w> 70
g s.</w> 70
I ndi 70
ar re 70
en g 70
est u 70
lo .</w> 70
bo li 70
so l.</w> 70
wo man,</w> 70
be ge</w> 70
out f 70
comp ras</w> 70
ba thing</w> 70
band eira</w> 70
mã os.</w> 70
cel ular</w> 70
compet i 70
edifíci o</w> 70
asiáti cos</w> 70
mascul ino</w> 70
chei o</w> 70
a y 69
r ing</w> 69
p é 69
l inha</w> 69
m s.</w> 69
f fe 69
v í 69
ç ões</w> 69
in os</w> 69
pe ga</w> 69
is ,</w> 69
pre to,</w> 69
tra mpo 69
bro s</w> 69
bas e</w> 69
fil ho</w> 69
perfor ms</w> 69
woo ds.</w> 69
fon es</w> 69
boo k.</w> 69
sub way</w> 69
peop le,</w> 69
metr ô.</w> 69
fel i 69
númer o</w> 69
b ur 68
a st 68
a -se</w> 68
g el 68
u p.</w> 68
f ar 68
ro ,</w> 68
ma s 68
ma ke</w> 68
al le 68
la ter 68
ol hos</w> 68
ti on</w> 68
vest s</w> 68
ing ing</w> 68
pa th.</w> 68
bar bu 68
fe w</w> 68
skat ista</w> 68
sa x 68
che n</w> 68
woo d</w> 68
alg uma</w> 68
rox o</w> 68
dri ving</w> 68
Wo men</w> 68
ste ps</w> 68
esqu er 68
fest iv 68
cozinh a.</w> 68
kit chen</w> 68
brilh ante</w> 68
mus ici 68
tril ha</w> 68
carri es</w> 68
b .</w> 67
b ut 67
a vi 67
c es</w> 67
p es</w> 67
i s.</w> 67
N o 67
ri ver</w> 67
et as</w> 67
am ig 67
ta do</w> 67
le av 67
let a</w> 67
des can 67
trabalh am</w> 67
av a</w> 67
av ental</w> 67
met al.</w> 67
danç ar 67
oce an</w> 67
vol ta</w> 67
montan ha.</w> 67
ali ment 67
sof á</w> 67
concre te</w> 67
pil ha</w> 67
diri gindo</w> 67
homen s,</w> 67
macac ão</w> 67
n er.</w> 66
x ing</w> 66
E sta</w> 66
est .</w> 66
lo i 66
on s.</w> 66
po u 66
su its</w> 66
bi qu 66
sho es</w> 66
flo or.</w> 66
go gg 66
tr en 66
grama do</w> 66
bicyc le.</w> 66
assist em</w> 66
baix o.</w> 66
algu ém</w> 66
sol d 66
amarel o.</w> 66
cru z 66
arti sta</w> 66
spec tat 66
- americ 65
m sel 65
e mb 65
d ge.</w> 65
v az 65
ca u 65
ro pe</w> 65
la go</w> 65
ra p 65
ad a,</w> 65
pos iti 65
ici on 65
mã e</w> 65
bik in 65
stic o</w> 65
midd le-aged</w> 65
au di 65
umbrel la.</w> 65
founta in.</w> 65
reali zando</w> 65
a frican 64
t h</w> 64
s m 64
f ing 64
ar ts</w> 64
es cor 64
co r</w> 64
est ran 64
el ing</w> 64
ri der</w> 64
par ked</w> 64
li t</w> 64
ti al</w> 64
vi d 64
mar tial</w> 64
ag em.</w> 64
sho vel 64
fe min 64
he iro</w> 64
bri dge</w> 64
bran ca,</w> 64
blon d-hair</w> 64
skateboar der</w> 64
cell phone</w> 64
d' água.</w> 64
volley ball</w> 64
ath let 64
l ying</w> 63
j ar 63
j et 63
s qu 63
f lut 63
co ffe 63
er ed</w> 63
re ce 63
ca s.</w> 63
ro dei 63
la d 63
so n 63
ad e.</w> 63
po le</w> 63
po si 63
hor se.</w> 63
mi d 63
pos am</w> 63
ni c</w> 63
tal ks</w> 63
pain ted</w> 63
ani ma 63
lut ando</w> 63
umbrel la</w> 63
pictu res</w> 63
ramp a</w> 63
cé u</w> 63
smo king</w> 63
espor ti 63
cole ira</w> 63
meia- idade</w> 63
Per son</w> 63
escor reg 63
c r 62
c lu 62
i d 62
t y 62
s pla 62
u m.</w> 62
h as.</w> 62
é tri 62
G ar 62
G roup</w> 62
ar tes</w> 62
co ming</w> 62
er ing</w> 62
ro cks</w> 62
qu i</w> 62
ver de 62
di fer 62
ta p 62
fro -americ 62
sor v 62
sur fista</w> 62
sa fet 62
list s</w> 62
lu vas</w> 62
prepar es</w> 62
esca la 62
fis h</w> 62
post e</w> 62
So me 62
bow ling</w> 62
kic king</w> 62
mai ô</w> 62
graff iti 62
polici al</w> 62
estátu a</w> 62
river .</w> 62
ay a 62
b an</w> 61
a par 61
a ção.</w> 61
a fro-americ 61
i r</w> 61
t rá 61
g elo</w> 61
d es.</w> 61
en or 61
est ação</w> 61
do or</w> 61
bo tas</w> 61
et e.</w> 61
on loo 61
wo man.</w> 61
po s</w> 61
pla ta 61
bla ck 61
dres ses</w> 61
wa ve</w> 61
bar be 61
ve n</w> 61
back .</w> 61
mon tando</w> 61
convers am</w> 61
senhor as</w> 61
var a</w> 61
vermel ho,</w> 61
dif fer 61
pux ando</w> 61
photograp h 61
atravess ando</w> 61
gy m 61
rock y</w> 61
jerse y</w> 61
vôle i</w> 61
vende dor</w> 61
whit e,</w> 61
estru tura</w> 61
safet y</w> 61
c leaning</w> 60
e ms</w> 60
e dge</w> 60
s po 60
s et.</w> 60
d er.</w> 60
th is</w> 60
be arded</w> 60
di z</w> 60
ei ro.</w> 60
hi t</w> 60
marro ns</w> 60
tu re.</w> 60
sw inging</w> 60
convers ando.</w> 60
bik es</w> 60
fen ce</w> 60
traj e</w> 60
Algu ém</w> 60
adolesc ente</w> 60
bun ch</w> 60
levant a</w> 60
skir t</w> 60
Bo y</w> 60
practic ing</w> 60
youn ger</w> 60
vegeta bl 60
t s,</w> 59
n ão</w> 59
f e</w> 59
h air 59
C ac 59
al ,</w> 59
al ly</w> 59
st aring</w> 59
la bo 59
hom em,</w> 59
so be</w> 59
par king</w> 59
fo togra 59
ta in 59
vi du 59
hol d</w> 59
sho p</w> 59
bran co,</w> 59
pass am</w> 59
pequen as</w> 59
list ening</w> 59
some one</w> 59
ban ho</w> 59
cre am</w> 59
dent s</w> 59
ga ther</w> 59
outdo ors.</w> 59
instrument os</w> 59
cla ss 59
flow er</w> 59
mark et</w> 59
ght ly</w> 59
ref le 59
ref ei 59
scoo ter</w> 59
lap to 59
apro n</w> 59
faix a</w> 59
differ ent</w> 59
Cac hor 59
b ul 58
i a.</w> 58
g er 58
f f</w> 58
f res 58
d est 58
d un 58
â nci 58
S i 58
G rupo</w> 58
an .</w> 58
en ce</w> 58
it ando</w> 58
ri o 58
br as</w> 58
car ros</w> 58
su it 58
ros ,</w> 58
pro test 58
ári os</w> 58
mon te</w> 58
ce ment</w> 58
cer ca.</w> 58
gi ving</w> 58
del es</w> 58
del es.</w> 58
observ am</w> 58
Pesso a</w> 58
vel hos</w> 58
surf er</w> 58
drin k</w> 58
fl ying</w> 58
escur a</w> 58
chur ras 58
gentle man</w> 58
bom bei 58
plá stico</w> 58
vari ous</w> 58
Trabalh adores</w> 58
o d 57
m - 57
g uns</w> 57
d ding</w> 57
v os</w> 57
z z 57
C hin 57
ho n 57
ho t</w> 57
th ere</w> 57
al un 57
at é</w> 57
at tire</w> 57
ch air.</w> 57
ur ing</w> 57
ac er 57
gu e</w> 57
inh as</w> 57
ci do</w> 57
con du 57
fi gh 57
pa st 57
sho w.</w> 57
mulher ,</w> 57
biciclet as</w> 57
faz em</w> 57
clo se</w> 57
perfor m</w> 57
cti ve</w> 57
emp ty</w> 57
hat ,</w> 57
fru tas</w> 57
ski er</w> 57
pri me 57
pad d 57
ensolar ado.</w> 57
penhas co</w> 57
wai t</w> 57
r y</w> 56
c ele 56
s p 56
g un 56
g ar</w> 56
g rel 56
h am 56
w r 56
k aya 56
ar ,</w> 56
ar bo 56
es cre 56
er s,</w> 56
re c 56
it i</w> 56
ra - 56
ra in 56
el étri 56
mul her.</w> 56
br indo</w> 56
car eca</w> 56
ne l</w> 56
ta l</w> 56
ban co.</w> 56
moto ciclista</w> 56
pain t</w> 56
jan ela.</w> 56
sli ding</w> 56
caf é</w> 56
passe io</w> 56
leap s</w> 56
degra us</w> 56
plat for 56
Gir l</w> 56
later al</w> 56
Some one</w> 56
i al</w> 55
t ,</w> 55
t á 55
s h</w> 55
n av 55
g em</w> 55
ç ões.</w> 55
C h 55
an do,</w> 55
it a.</w> 55
la do.</w> 55
do ck</w> 55
ri sta</w> 55
hom em.</w> 55
ic .</w> 55
ur ban 55
si on 55
pre ta.</w> 55
for e</w> 55
cor ner</w> 55
ci da</w> 55
su n</w> 55
pi sta.</w> 55
wa ve.</w> 55
sho o 55
bar co.</w> 55
comp an 55
comp let 55
skat ing</w> 55
ge ,</w> 55
che f</w> 55
ben gal 55
fla g</w> 55
ocean o</w> 55
compet indo</w> 55
cant a</w> 55
balanç ando</w> 55
rost o.</w> 55
indi vidu 55
Crianç a</w> 55
ín i</w> 55
adolesc entes</w> 55
chas ing</w> 55
chair s</w> 55
grav ata</w> 55
teen ag 55
particip ando</w> 55
Indi an</w> 55
biqu íni</w> 55
Cachor ro</w> 55
b b 54
b re 54
a ula</w> 54
c us 54
l í 54
n ati 54
g ro 54
x im 54
d en 54
d ro 54
ê .</w> 54
re de</w> 54
lo w 54
be fore</w> 54
we t</w> 54
mo ther</w> 54
tra ck</w> 54
no iva</w> 54
stre t 54
list ra 54
fac ing</w> 54
sc re 54
get s</w> 54
rol ler 54
surf ando</w> 54
skateboar ding</w> 54
ani mal</w> 54
comput er</w> 54
most ra</w> 54
cozinh ando</w> 54
spor ts</w> 54
prote ção</w> 54
apon tando</w> 54
graff iti</w> 54
barbu do</w> 54
graffiti .</w> 54
arbo riz 54
a b 53
c ing</w> 53
c ena</w> 53
t ar 53
m olh 53
j o</w> 53
ç os</w> 53
re ,</w> 53
it y</w> 53
ma de</w> 53
do wn.</w> 53
el y</w> 53
ri o.</w> 53
is h 53
me di 53
hor ses</w> 53
sk i</w> 53
amar ela.</w> 53
tri es</w> 53
jack ets</w> 53
pal ha 53
glass es.</w> 53
Se is</w> 53
alg o.</w> 53
compet ing</w> 53
aga ch 53
bus in 53
colori das</w> 53
flow ers.</w> 53
musi cal</w> 53
scul p 53
machin e.</w> 53
esqui ador</w> 53
sil ver</w> 53
laugh ing</w> 53
pró xim 53
trad iti 53
parti da</w> 53
scho ol</w> 53
bikin i</w> 53
Gar o 53
Si x</w> 53
prime iro</w> 53
b o</w> 52
p p 52
p lo 52
p ile</w> 52
i st 52
i mag 52
t un 52
s as</w> 52
f ul 52
á li 52
k en</w> 52
in ho.</w> 52
co mb 52
ri ght</w> 52
so z 52
ad i 52
to n 52
ru as</w> 52
ru iva</w> 52
me mb 52
bal ão</w> 52
ti g 52
elh o</w> 52
bu bbl 52
fr ent 52
cer cado</w> 52
liv ro.</w> 52
gi g 52
jun to</w> 52
flow ers</w> 52
hu ge</w> 52
pá ti 52
óri o</w> 52
stair s</w> 52
hous e</w> 52
escur o</w> 52
tran spor 52
poin ting</w> 52
set ting</w> 52
castan hos</w> 52
ey es</w> 52
marat on 52
pilo to</w> 52
veí culo</w> 52
garraf a</w> 52
vit rin 52
obst á 52
feli z</w> 52
sm ile</w> 52
coffe e</w> 52
posi ção</w> 52
traditi onal</w> 52
c rou 51
p a</w> 51
l an 51
t on</w> 51
W or 51
Y or 51
re mo 51
re d,</w> 51
al mo 51
st at 51
do or 51
qu ei 51
at o 51
to cam</w> 51
li gh 51
car ro 51
car ta 51
bol o</w> 51
bar ri 51
trabalh o</w> 51
instru mento</w> 51
climb s</w> 51
fru it</w> 51
sli de</w> 51
sli de.</w> 51
cros s 51
bebi da</w> 51
frien ds</w> 51
milit ary</w> 51
inver no</w> 51
mir ro 51
lef t</w> 51
bronze ado</w> 51
jean s,</w> 51
cele bra 51
i c</w> 50
t ó 50
t run 50
s cara</w> 50
g at 50
u m 50
ch ,</w> 50
par ade.</w> 50
ur ban</w> 50
to y.</w> 50
se en</w> 50
ac en 50
si on</w> 50
ver i 50
di o.</w> 50
ti on.</w> 50
camis etas</w> 50
for est.</w> 50
ci a</w> 50
jog o.</w> 50
vermelh a,</w> 50
pa i</w> 50
pa z</w> 50
pare cem</w> 50
sw ing.</w> 50
tre in 50
cur v 50
band eiras</w> 50
bik er</w> 50
muit os</w> 50
swe e 50
má scara</w> 50
part y.</w> 50
chut ando</w> 50
quad ra</w> 50
fantasi a</w> 50
spea king</w> 50
folh as</w> 50
elec tri 50
amig os</w> 50
plata forma</w> 50
b ull</w> 49
r indo</w> 49
c es 49
c and 49
c er.</w> 49
c ópi 49
t ela</w> 49
s ame</w> 49
n at 49
k ,</w> 49
G u 49
re ú 49
st op 49
la un 49
se xo</w> 49
ru a,</w> 49
bal de</w> 49
car ro.</w> 49
ci ma.</w> 49
pa is 49
des fru 49
bar e 49
run n 49
phon es</w> 49
lu z</w> 49
fil hos</w> 49
vo a</w> 49
vo ando</w> 49
dis cus 49
jun tas</w> 49
outdo ors</w> 49
florest a</w> 49
most rando</w> 49
dist ânci 49
produ tos</w> 49
kne eling</w> 49
brea k</w> 49
públi co.</w> 49
equ ili 49
merca do.</w> 49
pou co</w> 49
flut u 49
mid air</w> 49
labo ra 49
b it 48
b il 48
a po 48
c tor</w> 48
p ne 48
an os</w> 48
al ta</w> 48
al pin 48
bo x</w> 48
or g 48
on e.</w> 48
cam p 48
car s</w> 48
ti e</w> 48
per i 48
no ite</w> 48
wa its</w> 48
pin tura</w> 48
fe ch 48
flo res.</w> 48
mu ral</w> 48
che ck 48
cou ch</w> 48
fer ra 48
fon te</w> 48
skateboar d.</w> 48
boo ts</w> 48
dor me</w> 48
sol di 48
obje c 48
gather ing</w> 48
compri do</w> 48
gin á 48
attemp ting</w> 48
mano bra</w> 48
descan s 48
p et 47
p és</w> 47
i .</w> 47
i mp 47
e ar 47
g ,</w> 47
A T 47
C ar 47
y ard</w> 47
ar en 47
en frent 47
ca is</w> 47
ca su 47
ro ck.</w> 47
ch er</w> 47
ic ando</w> 47
ad ver 47
po le.</w> 47
li x 47
bal anc 47
ne v 47
fo tó 47
out .</w> 47
out ro.</w> 47
sent a-se</w> 47
mar .</w> 47
bu ra 47
fi gur 47
sal tando</w> 47
quet e</w> 47
tal .</w> 47
clo u 47
tor .</w> 47
equip ment.</w> 47
var anda</w> 47
apresent a</w> 47
inc lin 47
Al guns</w> 47
bag .</w> 47
cour t.</w> 47
costu mes</w> 47
dist ance.</w> 47
Frisbe e.</w> 47
machin e</w> 47
lap top</w> 47
ballo on</w> 47
ori ental</w> 47
kis sing</w> 47
enor me</w> 47
reú ne</w> 47
a cor 46
c raf 46
i ght</w> 46
t ack 46
s aco</w> 46
n s.</w> 46
f ile</w> 46
v o.</w> 46
z ed</w> 46
en ce.</w> 46
en vol 46
en costa</w> 46
co me</w> 46
er lead 46
ma r</w> 46
ma ss 46
ri f 46
ir .</w> 46
me m 46
car rin 46
sent am</w> 46
for mal</w> 46
ap rox 46
stand .</w> 46
garo to</w> 46
comp rando</w> 46
mi z 46
ba th 46
run ner</w> 46
bri de</w> 46
mes s 46
ven dor</w> 46
esca das</w> 46
cti on.</w> 46
observ am.</w> 46
esc rit 46
surf ing</w> 46
sand áli 46
blo wing</w> 46
esqu ina</w> 46
dr y</w> 46
stu dents</w> 46
fu mando</w> 46
over looking</w> 46
backp ack 46
pú bl 46
pró xi 46
bir d</w> 46
ouvi do</w> 46
Con stru 46
a co 45
t ball.</w> 45
s lo 45
g est 45
g old</w> 45
x í 45
d ar</w> 45
í r 45
N at 45
y - 45
in as</w> 45
in do.</w> 45
an do 45
st er</w> 45
st un 45
et s.</w> 45
to mando</w> 45
is e</w> 45
sh .</w> 45
li xo</w> 45
gu i 45
le ans</w> 45
ado r 45
play ground</w> 45
gra de</w> 45
fi xing</w> 45
pi ra 45
des fil 45
sho t</w> 45
lon ga</w> 45
wor k.</w> 45
man gas</w> 45
jack et.</w> 45
jaquet as</w> 45
sen ho 45
fri sbe 45
del as</w> 45
ped ras</w> 45
assist e.</w> 45
jun tos.</w> 45
rol ler</w> 45
cober tor</w> 45
sol it 45
sing s</w> 45
fest a</w> 45
concre to.</w> 45
atraves sa</w> 45
asiáti cas</w> 45
stair s.</w> 45
rist mas</w> 45
trad icion 45
persegu indo</w> 45
jorn al</w> 45
team s</w> 45
glo ves</w> 45
cest a</w> 45
pô r</w> 45
ví du 45
lad der</w> 45
bombei ros</w> 45
fotó graf 45
a que</w> 44
l á</w> 44
s n 44
f ra 44
v es.</w> 44
N e 44
ó s</w> 44
ar te</w> 44
ho s 44
it ens</w> 44
th row</w> 44
la ke</w> 44
ch ar 44
ur e</w> 44
si onal</w> 44
gu eira</w> 44
men .</w> 44
car t.</w> 44
ne t</w> 44
ado ra</w> 44
tra il.</w> 44
jog ar</w> 44
fi ve</w> 44
cu t</w> 44
sk y.</w> 44
ou vindo</w> 44
bol ,</w> 44
pas s</w> 44
bar re 44
hi gh 44
bri dge.</w> 44
ex er 44
dre ad 44
unifor miz 44
sa ys</w> 44
cli ff</w> 44
hel ping</w> 44
instru ment</w> 44
montan has</w> 44
snowboar d</w> 44
bag s</w> 44
esp ir 44
quin tal.</w> 44
pel as</w> 44
aju dando</w> 44
lea ther</w> 44
lanç ar</w> 44
micros co 44
micros cópi 44
encost ado</w> 44
helmet s</w> 44
gogg les</w> 44
tren ó</w> 44
gym n 44
wr iting</w> 44
ferra ment 44
b am 43
o - 43
p í 43
p esca 43
m os</w> 43
k et.</w> 43
re p 43
ca si 43
ca pu 43
ro wn</w> 43
ro das</w> 43
st atu 43
st ation.</w> 43
la m</w> 43
do wn 43
ra dos</w> 43
qu ando</w> 43
po is</w> 43
am bi 43
bal d</w> 43
di ving</w> 43
as le 43
play .</w> 43
ag ens</w> 43
da ugh 43
wa ving</w> 43
mulher es,</w> 43
stre et,</w> 43
sal v 43
ni ght</w> 43
tor cida</w> 43
go o 43
convers ation</w> 43
che f 43
bei jando</w> 43
gi ant</w> 43
bicyc les</w> 43
blon d-haired</w> 43
fon te.</w> 43
colori do</w> 43
apresent ação</w> 43
má quin 43
instrument s</w> 43
cla s 43
sorri em</w> 43
ôni bus.</w> 43
sof tball</w> 43
quin tal</w> 43
pel ú 43
empur ra</w> 43
marat ho 43
hap py</w> 43
cois a.</w> 43
músi cos</w> 43
competi ção</w> 43
tap ete</w> 43
próxim o</w> 43
ful ly</w> 43
tig ela</w> 43
stat ue</w> 43
electri c</w> 43
Constru ction</w> 43
c á 42
p h 42
s ca 42
g or 42
f íci 42
h á</w> 42
k ar 42
E m</w> 42
co po</w> 42
re mando</w> 42
ma kes</w> 42
al e</w> 42
st y 42
st adi 42
el as</w> 42
ch e.</w> 42
ad ing</w> 42
ad vers 42
to do</w> 42
ac e</w> 42
be d</w> 42
am ong</w> 42
we ars</w> 42
bal ões</w> 42
di a.</w> 42
for est</w> 42
cu p 42
wa shing</w> 42
amar elos</w> 42
fe males</w> 42
he av 42
bri ghtly</w> 42
ex peri 42
pass ing</w> 42
ck s.</w> 42
cost as.</w> 42
build ings.</w> 42
dis cut 42
cade i 42
tro n 42
brinque do.</w> 42
concre to</w> 42
ramp .</w> 42
polici ais</w> 42
castan ho</w> 42
conser tando</w> 42
scen e</w> 42
competiti on.</w> 42
figh ting</w> 42
gro cer 42
i or</w> 41
i vo</w> 41
t ú 41
e d.</w> 41
s prin 41
d em</w> 41
v as.</w> 41
â n 41
in spe 41
en d</w> 41
ho le</w> 41
ro of 41
ma la 41
al low</w> 41
ra mp</w> 41
el es</w> 41
ent es.</w> 41
to uro</w> 41
il ing</w> 41
ac cor 41
br o</w> 41
be er</w> 41
we dding</w> 41
ti rar</w> 41
ti me.</w> 41
ci al</w> 41
cachor ro.</w> 41
bol as</w> 41
pra to</w> 41
pra ça</w> 41
ex plo 41
tal k</w> 41
sor t</w> 41
sur f</w> 41
sw im</w> 41
cin co</w> 41
vel .</w> 41
drin ks</w> 41
balanç a</w> 41
ig re 41
basquet e.</w> 41
cour o</w> 41
indi vídu 41
a- vi 41
partici pat 41
passe ando</w> 41
art ist</w> 41
roch as</w> 41
lav ando</w> 41
buck et</w> 41
pássar o</w> 41
acor de 41
ambi ente</w> 41
accor di 41
a pre 40
o s 40
i ma 40
t ers</w> 40
m el 40
s par 40
v an</w> 40
h air.</w> 40
w ar 40
A r 40
M i 40
M ar 40
W h 40
in o.</w> 40
an as</w> 40
re cor 40
it u 40
so m 40
par adas</w> 40
be d.</w> 40
de fen 40
we ar</w> 40
ta do.</w> 40
pre ta,</w> 40
vi st 40
fr ente.</w> 40
ju gg 40
sho ws</w> 40
hi king</w> 40
flo ral</w> 40
tal king.</w> 40
culo .</w> 40
pu lar</w> 40
sw ings</w> 40
pic king</w> 40
ele v 40
fal ling</w> 40
caval os</w> 40
ár bit 40
constru ção.</w> 40
dent es</w> 40
bat endo</w> 40
dir ty</w> 40
colori dos</w> 40
hat .</w> 40
beise bol.</w> 40
ig n</w> 40
esqu i</w> 40
enjo y</w> 40
rea ching</w> 40
amarel as</w> 40
throw s</w> 40
cé m- 40
atravess ar</w> 40
roch a.</w> 40
teen age</w> 40
bateri a</w> 40
mountain s</w> 40
near by.</w> 40
desli zando</w> 40
sacol a</w> 40
boli che</w> 40
musici ans</w> 40
jar di 40
apo i 40
asle ep</w> 40
mala bar 40
a fa 39
c hor 39
c ed</w> 39
p ati 39
l ina</w> 39
m oun 39
m édi 39
e las.</w> 39
v ic 39
v ac 39
ç ando</w> 39
E n 39
y s.</w> 39
I n</w> 39
in s</w> 39
an other.</w> 39
en as</w> 39
re cém- 39
ca ke</w> 39
est amp 39
al mente</w> 39
ra das</w> 39
ra paz</w> 39
el et 39
ir ando</w> 39
ent er 39
qu inho</w> 39
so pr 39
ac rob 39
sh allow</w> 39
am i 39
con te 39
mo ve</w> 39
tra bal 39
tra il</w> 39
fi re.</w> 39
des file</w> 39
pro n 39
pos si 39
pass ar 39
multi colored</w> 39
col lar</w> 39
cur to</w> 39
hel d</w> 39
rol ling</w> 39
colori da</w> 39
cai aque</w> 39
inc lina</w> 39
stu d 39
comput ador.</w> 39
motorcyc le.</w> 39
fest a.</w> 39
cigar ette</w> 39
ski ing</w> 39
dra wing</w> 39
diri ge</w> 39
bel o 39
clar o</w> 39
lif e</w> 39
chair s.</w> 39
set ting.</w> 39
offic er</w> 39
diver tindo</w> 39
gril l.</w> 39
childr en.</w> 39
childr en,</w> 39
abraç ando</w> 39
alle y.</w> 39
busin ess</w> 39
alpin ista</w> 39
desfil e.</w> 39
salv a-vi 39
sopr ando</w> 39
r endo</w> 38
p un 38
i do</w> 38
l indo</w> 38
j a,</w> 38
e 's</w> 38
g ada</w> 38
k ha 38
k ey</w> 38
é ri 38
M o 38
B M 38
ho op 38
re ún 38
ro pe.</w> 38
it ems</w> 38
ma st 38
ch as</w> 38
ur al.</w> 38
se m 38
and am</w> 38
br un 38
pla ce.</w> 38
de pois</w> 38
bal con 38
di e</w> 38
ne w</w> 38
fo tos.</w> 38
cor da.</w> 38
ci mento</w> 38
con tro 38
su ja</w> 38
tra se 38
wa ves</w> 38
ve is</w> 38
ex ter 38
ex pres 38
pass ag 38
clo wn</w> 38
gi ves</w> 38
danç am</w> 38
del e</w> 38
sto p</w> 38
jun tas.</w> 38
chu va</w> 38
esper am</w> 38
lut a</w> 38
cat ching</w> 38
cat ches</w> 38
cla ss</w> 38
neg ra</w> 38
gri sal 38
na vi 38
cigar ro</w> 38
mor ena</w> 38
cir c 38
offic ers</w> 38
pedest res</w> 38
countr y</w> 38
cinz a.</w> 38
blan ket</w> 38
mas k</w> 38
verde ,</w> 38
onloo kers</w> 38
alun os</w> 38
ato p</w> 38
pais agem</w> 38
bare foot</w> 38
hos pit 38
a i</w> 37
l á 37
l un 37
t endo</w> 37
j as</w> 37
e cut 37
s co 37
g os</w> 37
f ur 37
f le 37
h ur 37
ç as</w> 37
é .</w> 37
B la 37
L on 37
in fl 37
ca ma</w> 37
al ha</w> 37
la wn</w> 37
ra in</w> 37
ra in.</w> 37
at h</w> 37
bo un 37
ch al 37
on das</w> 37
on da.</w> 37
wo men,</w> 37
is ing</w> 37
me al</w> 37
li es</w> 37
li ght.</w> 37
di gging</w> 37
as h</w> 37
le gs</w> 37
ado ,</w> 37
us am</w> 37
gir l 37
pa í 37
pro fis 37
fe et</w> 37
ex ecut 37
pass es</w> 37
shor ts,</w> 37
der es</w> 37
tent .</w> 37
equip ment</w> 37
var rendo</w> 37
dri l 37
instrument s.</w> 37
motoc ross</w> 37
sof á 37
cent ro</w> 37
patin s</w> 37
metr ô</w> 37
tel esc 37
pendu rado</w> 37
leap ing</w> 37
bott le</w> 37
cerve ja</w> 37
telh ado</w> 37
struc ture.</w> 37
dark -haired</w> 37
vide o</w> 37
gel o.</w> 37
loi ros</w> 37
spectat ors</w> 37
escorreg ador</w> 37
black ,</w> 37
acer tar</w> 37
palha ço</w> 37
carro ça</w> 37
reún em</w> 37
b ando</w> 36
a cab 36
l ers</w> 36
t ada</w> 36
n ari 36
f .</w> 36
d ing.</w> 36
w et 36
ú nci 36
an únci 36
en car 36
ho w</w> 36
ho ut</w> 36
ca indo</w> 36
est ra</w> 36
al one</w> 36
ra ck 36
hom e</w> 36
se ment</w> 36
pe t</w> 36
and ai 36
sh in 36
de baixo</w> 36
hor se 36
car at 36
ap an 36
ap pro 36
tra il 36
vi a</w> 36
cu rio 36
pa vi 36
bro wn 36
corr en 36
mes mo</w> 36
ni v 36
tic o</w> 36
bas ket</w> 36
glass es,</w> 36
lu zes</w> 36
band .</w> 36
prepar e</w> 36
esca da.</w> 36
azu is.</w> 36
segu ram</w> 36
gol f</w> 36
hu gging</w> 36
fli es</w> 36
long - 36
apon ta</w> 36
up side</w> 36
tel esco 36
cano a</w> 36
jorn al.</w> 36
vehic le.</w> 36
escul tura</w> 36
emb aix 36
escre vendo</w> 36
swee ping</w> 36
bura co</w> 36
senho r</w> 36
fotógraf o</w> 36
sca ff 36
malabar is 36
brun ette</w> 36
infl á 36
telesc ópi 36
a part 35
p ano</w> 35
i ds</w> 35
t es.</w> 35
m b</w> 35
e e</w> 35
e merg 35
v as 35
v ag 35
z e</w> 35
w il 35
F o 35
k i</w> 35
k in 35
P o 35
E ss 35
L o 35
in fla 35
an o.</w> 35
co s,</w> 35
er y</w> 35
ma s.</w> 35
st ando</w> 35
do ca</w> 35
do or.</w> 35
ent rando</w> 35
qu ente</w> 35
bo y,</w> 35
ic e 35
ac ar 35
de ep</w> 35
per na</w> 35
ap ós</w> 35
con tain 35
sk in 35
pa usa</w> 35
pa ved</w> 35
mu st 35
ex cit 35
mon it 35
faz en 35
jack et,</w> 35
sa i</w> 35
por t 35
que ,</w> 35
cav ando</w> 35
caval heiro</w> 35
bei ge</w> 35
fa ther</w> 35
fer ro 35
dis positi 35
spe e 35
pant s,</w> 35
sub way.</w> 35
balanç o.</w> 35
slee ps</w> 35
cloth ing.</w> 35
Jo g 35
na ve 35
fli p</w> 35
patin ando</w> 35
Muit os</w> 35
fol lo 35
vis ão</w> 35
pendu rada</w> 35
para de</w> 35
concer t.</w> 35
under ne 35
news paper</w> 35
sacol as</w> 35
prof esso 35
outf its</w> 35
trampo li 35
sax of 35
festiv al</w> 35
rodei o.</w> 35
sorv ete</w> 35
refei ção</w> 35
públ ico</w> 35
dread lo 35
statu e.</w> 35
cá qui</w> 35
salva-vi das</w> 35
pavi ment 35
b in 34
b ela</w> 34
a per 34
a sta</w> 34
l ant 34
m mer</w> 34
j ant 34
g rin 34
f lu 34
v ens</w> 34
v an.</w> 34
w er</w> 34
é m.</w> 34
er y.</w> 34
ho u 34
re dor.</w> 34
st ar 34
st om 34
la ta</w> 34
ri de.</w> 34
lo ca 34
ir d</w> 34
so s.</w> 34
so mb 34
wit hout</w> 34
to ps</w> 34
il h 34
br ando</w> 34
pla ce</w> 34
am on 34
we d</w> 34
bal cão</w> 34
bal l,</w> 34
car niv 34
out ra.</w> 34
ant es.</w> 34
mo ving</w> 34
res t</w> 34
crianç a.</w> 34
lon e</w> 34
ter min 34
ba by.</w> 34
ment o.</w> 34
mes a,</w> 34
shor e</w> 34
rest ing</w> 34
cab el 34
quen i 34
col d</w> 34
col ina.</w> 34
cap a</w> 34
band a.</w> 34
caval gando</w> 34
sun set.</w> 34
the msel 34
danc ers</w> 34
ici al</w> 34
dis play</w> 34
fla gs</w> 34
pur se</w> 34
sing er</w> 34
edifíci os</w> 34
stu ff 34
comput ador</w> 34
pap el.</w> 34
guarda-chu va.</w> 34
cigar et 34
ari a.</w> 34
rail ing</w> 34
mag az 34
photograp her</w> 34
relax ing</w> 34
founta in</w> 34
Ol d</w> 34
cerve ja.</w> 34
inclu ding</w> 34
esquer da.</w> 34
avi ão</w> 34
leav es</w> 34
spla shing</w> 34
fotogra f 34
Chin ese</w> 34
Ch ristmas</w> 34
bengal a</w> 34
desfru tando</w> 34
exer c 34
daugh ter</w> 34
inspe cion 34
passar ela</w> 34
underne ath</w> 34
a baixo.</w> 33
c ting</w> 33
p ped</w> 33
p elos</w> 33
m ó 33
m ers</w> 33
s ite.</w> 33
d ão</w> 33
​ ​ 33
ç o.</w> 33
S mall</w> 33
E l 33
K ids</w> 33
es pi 33
ma ter 33
ma qui 33
ma ke 33
est il 33
al inh 33
ch o</w> 33
ver des.</w> 33
me at</w> 33
op posing</w> 33
de mon 33
di g 33
car ne</w> 33
ne on</w> 33
le g</w> 33
con fer 33
crianç as.</w> 33
crianç as,</w> 33
cu p</w> 33
caminh antes</w> 33
pi queni 33
ba st 33
pul led</w> 33
ve ,</w> 33
bran cas.</w> 33
cer e 33
sw i 33
óculo s,</w> 33
ven de</w> 33
caval o.</w> 33
cli mb</w> 33
prepar am</w> 33
ten da</w> 33
danc es</w> 33
pon te.</w> 33
sig ns</w> 33
ido sos</w> 33
lut am</w> 33
ste ps.</w> 33
tabl es</w> 33
pes cando</w> 33
pel e</w> 33
pux a</w> 33
caix as</w> 33
even t</w> 33
watch ing.</w> 33
aber ta</w> 33
mat ching</w> 33
ballo ons</w> 33
cano e</w> 33
dru ms</w> 33
marci ais</w> 33
audi ence.</w> 33
difer entes</w> 33
comb in 33
Wor kers</w> 33
ligh ts</w> 33
solit ário</w> 33
corren do.</w> 33
embaix o</w> 33
b s</w> 32
a er 32
a os</w> 32
p a.</w> 32
l er.</w> 32
t il 32
t ún 32
m y</w> 32
s i</w> 32
u si 32
d it 32
d adas</w> 32
B e 32
in spec 32
in door</w> 32
an g 32
co ats</w> 32
ho s,</w> 32
re fer 32
ca se</w> 32
al c 32
el es.</w> 32
at ta 32
to da</w> 32
to wn</w> 32
se d.</w> 32
wo man's</w> 32
pla te</w> 32
am u 32
car nav 32
per nas</w> 32
bl y</w> 32
cor das</w> 32
mo der 32
gar d 32
jog ging</w> 32
fi ght 32
cal .</w> 32
te x 32
pi cha 32
des k</w> 32
mi da 32
ob jet 32
stre ets</w> 32
hi ker</w> 32
mes as</w> 32
tri cks</w> 32
tu ra.</w> 32
phon es.</w> 32
prai a,</w> 32
cur so</w> 32
convers ing</w> 32
fil ha</w> 32
che erlead 32
velh as</w> 32
bei ra- 32
ten t</w> 32
build ings</w> 32
constru indo</w> 32
bicyc list</w> 32
woo ded</w> 32
viol ino</w> 32
dad es</w> 32
surf board</w> 32
cic lo</w> 32
dir t.</w> 32
chu va.</w> 32
cyc list</w> 32
tele fone.</w> 32
au la.</w> 32
pes co 32
fu n</w> 32
motociclet a.</w> 32
bow l</w> 32
chut a</w> 32
aber ta.</w> 32
rail .</w> 32
mus ic.</w> 32
scoo ter.</w> 32
poin ts</w> 32
relax ando</w> 32
attemp ts</w> 32
super fíci 32
inclu indo</w> 32
wrest ling</w> 32
esten di 32
tatto o</w> 32
ambo s</w> 32
blu e,</w> 32
prof es 32
vitrin e</w> 32
aprox i 32
tradicion ais</w> 32
bam bol 32
capu z</w> 32
sprin k 32
árbit ro</w> 32
Bla ck</w> 32
long- slee 32
stuff ed</w> 32
picha ções.</w> 32
a ching</w> 31
c ír 31
i gh 31
l as</w> 31
l ic 31
l ing.</w> 31
m o.</w> 31
s es.</w> 31
n a.</w> 31
u s.</w> 31
x i</w> 31
d 's</w> 31
z er</w> 31
z a.</w> 31
C he 31
à s</w> 31
ar bu 31
ho t 31
ho riz 31
ca t</w> 31
ro of</w> 31
al ta.</w> 31
la da</w> 31
la ys</w> 31
do l 31
lo un 31
lo t.</w> 31
at ,</w> 31
to dos</w> 31
wh ite.</w> 31
be ver 31
jo .</w> 31
ta b 31
camis a,</w> 31
Th ese</w> 31
su je 31
olh ar</w> 31
pa u</w> 31
pa ir 31
des calç 31
sho re.</w> 31
pra te 31
mi st 31
colo ca</w> 31
hi msel 31
mu se 31
ex posição</w> 31
pu p 31
pu shes</w> 31
fute bol,</w> 31
go es</w> 31
fun cion 31
col le 31
perfor mer</w> 31
cou ch.</w> 31
Mul ti 31
cover ing</w> 31
bot to 31
kic k</w> 31
walk ing.</w> 31
ênci a.</w> 31
ke y 31
long os</w> 31
veget ais</w> 31
ras p 31
ín gre 31
hoo die</w> 31
sin al</w> 31
mountain s.</w> 31
strol ler</w> 31
músi ca.</w> 31
spra y</w> 31
vide o 31
estu d 31
sax op 31
trá s.</w> 31
trun ks</w> 31
objec t.</w> 31
descans ando</w> 31
adver ti 31
xí cara</w> 31
kar ate</w> 31
paí s</w> 31
scaff ol 31
acar ici 31
dreadlo cks</w> 31
b ble</w> 30
a to</w> 30
p á</w> 30
l ín 30
t am 30
m é 30
m es.</w> 30
s y 30
s pin 30
s cap 30
v in 30
w ard</w> 30
w rap 30
ó ci 30
k il 30
P ol 30
2 0 30
ar ena</w> 30
en s.</w> 30
ho se</w> 30
ca ma.</w> 30
ro be</w> 30
it s.</w> 30
it o.</w> 30
th ird</w> 30
est a</w> 30
al to.</w> 30
ri ed</w> 30
at en 30
bo w</w> 30
ch a.</w> 30
on ,</w> 30
as e</w> 30
ne ca</w> 30
ti mes</w> 30
cor ner.</w> 30
su it.</w> 30
gir l.</w> 30
vi a 30
cu p.</w> 30
pi ano</w> 30
águ a,</w> 30
calç ada,</w> 30
ter ce 30
pul ls</w> 30
pro xi 30
ári o.</w> 30
flo ri 30
ben t</w> 30
caval eiro</w> 30
cli ff 30
woo d.</w> 30
ga to</w> 30
com part 30
escu ro.</w> 30
head phones</w> 30
montan has.</w> 30
sand y</w> 30
ament os</w> 30
comput er.</w> 30
neg óci 30
lev anta 30
óri o.</w> 30
americ ano</w> 30
water fal 30
put s</w> 30
esqui ando</w> 30
laugh ing.</w> 30
stra w</w> 30
chas es</w> 30
especta do 30
d' água</w> 30
spea ks</w> 30
ouvi do.</w> 30
aqu á 30
pé .</w> 30
leav es.</w> 30
athlet e</w> 30
apar ência</w> 30
vegetabl es</w> 30
scre en.</w> 30
Gu y</w> 30
mem bros</w> 30
sandáli as</w> 30
Ne w</w> 30
elet r 30
BM X</w> 30
make up</w> 30
lín gu 30
r ú 29
o res</w> 29
p ,</w> 29
e at</w> 29
s pi 29
g es</w> 29
g ru 29
g az 29
g roup 29
d y 29
d ul 29
v ice</w> 29
h eiros</w> 29
á - 29
T o 29
T e 29
O ri 29
en gra 29
co brindo</w> 29
er n</w> 29
re d 29
ca das</w> 29
ma te</w> 29
al ls</w> 29
st r 29
ra il</w> 29
el ho.</w> 29
un indo</w> 29
at leta</w> 29
to alha</w> 29
il s</w> 29
po di 29
be er.</w> 29
li ght 29
op ening</w> 29
de ck</w> 29
per son 29
mo chi 29
cac ho 29
mar ket 29
fi a</w> 29
fi c</w> 29
vermelh as.</w> 29
bi go 29
ros a,</w> 29
ju st 29
pro t 29
ser vindo</w> 29
skat es</w> 29
he ira</w> 29
pu dd 29
cer cada</w> 29
pic nic</w> 29
dur a</w> 29
beb ê.</w> 29
ten nis.</w> 29
danc er</w> 29
câmer a,</w> 29
viol in</w> 29
stic k.</w> 29
drin k.</w> 29
blo ck</w> 29
dri ves</w> 29
gol den</w> 29
gol fe</w> 29
enjo ys</w> 29
part y</w> 29
cour se.</w> 29
cha ma 29
dist ance</w> 29
whe el</w> 29
limp a</w> 29
ari a</w> 29
aju da</w> 29
rist as</w> 29
sha king</w> 29
gin asta</w> 29
rock s.</w> 29
levant ando</w> 29
persegu e</w> 29
dru ms.</w> 29
nu bla 29
peix e</w> 29
near by</w> 29
decora ti 29
arre mess 29
vid ro.</w> 29
individu als</w> 29
arboriz ada.</w> 29
imag em</w> 29
memb ers</w> 29
labora t 29
ando -se</w> 29
superfíci e</w> 29
suje ira</w> 29
a gar 28
i da</w> 28
t amb 28
e g 28
n et.</w> 28
n ice</w> 28
u d 28
u ro 28
d dy</w> 28
ú r 28
k y</w> 28
L e 28
ar am</w> 28
es a</w> 28
ca bo 28
it as</w> 28
est e</w> 28
est rel 28
st al 28
ra i 28
ra s,</w> 28
ra quete</w> 28
bo y.</w> 28
to p.</w> 28
se wing</w> 28
cam u 28
and ar</w> 28
po uring</w> 28
ol a</w> 28
sh aving</w> 28
gu er 28
hor a</w> 28
ne ck 28
pre t 28
cu id 28
bol has</w> 28
pa ve 28
bar b 28
cas a 28
man gueira</w> 28
pro cur 28
tur es.</w> 28
air plan 28
pequen os</w> 28
lu gar</w> 28
fac ial</w> 28
band ana</w> 28
mei as</w> 28
hel p</w> 28
bicyc lists</w> 28
soc cer.</w> 28
assist e</w> 28
head s</w> 28
head ed</w> 28
sle d</w> 28
sand als</w> 28
blo que 28
brinque dos</w> 28
bag s.</w> 28
han gs</w> 28
kic ks</w> 28
water ,</w> 28
reuni das</w> 28
coun ter</w> 28
walk way.</w> 28
caf é.</w> 28
hoo d</w> 28
bebi da.</w> 28
estacion amento</w> 28
tril hos</w> 28
gy m.</w> 28
rode o</w> 28
mergul ho</w> 28
mergul hando</w> 28
bateri a.</w> 28
corre dores</w> 28
desen hando</w> 28
Ol der</w> 28
proje to</w> 28
peix es</w> 28
tatu agem</w> 28
struc ture</w> 28
dançar ina</w> 28
anima l.</w> 28
ty pe</w> 28
past or</w> 28
AT V</w> 28
clou dy</w> 28
gymn ast</w> 28
heav y</w> 28
grocer y</w> 28
tú nel</w> 28
roof .</w> 28
hur d 28
telescópi o</w> 28
kin d</w> 28
dispositi vo</w> 28
swi ms</w> 28
wrap ped</w> 28
proxi mi 28
a brindo</w> 27
c ro 27
c ted</w> 27
o c 27
t adas</w> 27
t aco</w> 27
t ambo 27
m bo 27
s mal 27
g by</w> 27
d inh 27
d amente</w> 27
v ando</w> 27
v il 27
h ula</w> 27
S t 27
k a</w> 27
k ni 27
P ap 27
in ten 27
an a.</w> 27
es s 27
en ro 27
re d-haired</w> 27
re pair 27
ma ,</w> 27
est re 27
st on 27
la b</w> 27
la p.</w> 27
lo ts</w> 27
hom e.</w> 27
ent r 27
ent re 27
bo oth 27
so n.</w> 27
par am</w> 27
to das</w> 27
se e</w> 27
ac ti 27
be co</w> 27
sh ed</w> 27
op pos 27
car d 27
le o 27
le n</w> 27
le va</w> 27
us h</w> 27
ap enas</w> 27
con es</w> 27
vi si 27
chil d.</w> 27
bu sh 27
no t</w> 27
pi ja 27
dres s.</w> 27
roun d</w> 27
cas e.</w> 27
ári a</w> 27
tur n</w> 27
culo s</w> 27
pu t</w> 27
om bro 27
om bros</w> 27
pal m</w> 27
col h 27
side ,</w> 27
aroun d.</w> 27
laran ja,</w> 27
list rado</w> 27
cur va</w> 27
cur tindo</w> 27
che cking</w> 27
band an 27
fal len</w> 27
sun ga</w> 27
fa bri 27
fa shi 27
restaur ant 27
pol o</w> 27
pol ice 27
sto re 27
pon to</w> 27
fla g.</w> 27
ha w 27
stic ks</w> 27
ani mal 27
ali z 27
basket ball.</w> 27
instrument .</w> 27
sti co.</w> 27
guarda-chu vas</w> 27
rea ches</w> 27
prote ctive</w> 27
bebi das</w> 27
estacion amento.</w> 27
produ ce</w> 27
mat ch.</w> 27
pratic a</w> 27
frien d</w> 27
amb ul 27
folh as.</w> 27
fore ign</w> 27
gentle men</w> 27
vehic le</w> 27
news paper.</w> 27
dou rado</w> 27
boli che.</w> 27
dançar inos</w> 27
cau casi 27
shovel ing</w> 27
class room.</w> 27
lapto p.</w> 27
platfor m</w> 27
teenag er</w> 27
lí deres</w> 27
páti o</w> 27
acen ando</w> 27
laun dry</w> 27
distânci a.</w> 27
stun t</w> 27
pelú cia</w> 27
kha ki</w> 27
wet suit</w> 27
ferro vi 27
themsel ves</w> 27
mida ir.</w> 27
mé d 27
oppos ite</w> 27
b indo</w> 26
a cade 26
a conte 26
o post 26
l y.</w> 26
t ted</w> 26
m un 26
e it 26
s wor 26
d as,</w> 26
v ent 26
R o 26
w ards</w> 26
A qui</w> 26
S u 26
P ar 26
M c 26
H ere</w> 26
in e.</w> 26
ar ran 26
ar te.</w> 26
en fer 26
re fri 26
do ri 26
ri ans</w> 26
ic yc 26
par t</w> 26
to s,</w> 26
to car</w> 26
cam ou 26
ru ral</w> 26
op or 26
op pon 26
di vers 26
cor ta</w> 26
ci ando</w> 26
ci ent 26
con tra 26
mo b 26
mo to</w> 26
tra in 26
tra sh</w> 26
mar ching</w> 26
cu stom 26
olh am.</w> 26
sk y</w> 26
sk is</w> 26
pa ja 26
sho es.</w> 26
comp le 26
ter ren 26
je an</w> 26
pin tado</w> 26
hi kers</w> 26
pho to.</w> 26
jump .</w> 26
mu d</w> 26
pass a.</w> 26
pass am.</w> 26
shor ts.</w> 26
pu lam</w> 26
om bro</w> 26
que iro</w> 26
go s.</w> 26
can e</w> 26
smil es.</w> 26
grama da.</w> 26
esca das.</w> 26
pol íci 26
dis h 26
pant s.</w> 26
fla gs.</w> 26
cidad e,</w> 26
cant eiro</w> 26
ido sas</w> 26
movi mento</w> 26
tro pi 26
Jo vens</w> 26
bor rif 26
na p</w> 26
temp o</w> 26
brilh ante.</w> 26
cigar ro.</w> 26
walk ,</w> 26
aju d 26
fantasi as</w> 26
está dio</w> 26
estacion ado</w> 26
chur ch.</w> 26
rode o.</w> 26
gril l</w> 26
cle ar</w> 26
shoul der</w> 26
countr y.</w> 26
merca dori 26
exi bi 26
rece b 26
afro-americ ano</w> 26
padd ling</w> 26
platfor m.</w> 26
shoo ting</w> 26
tun n 26
soz inho</w> 26
bubbl es</w> 26
org ani 26
balanc ing</w> 26
sty le</w> 26
trabal ho.</w> 26
carat ê</w> 26
must ach 26
carniv al</w> 26
cigaret te.</w> 26
estil o</w> 26
gard en.</w> 26
beira- mar.</w> 26
himsel f</w> 26
espectado res.</w> 26
colh endo</w> 26
acade mi 26
refri ger 26
camou fla 26
b at</w> 25
- covered</w> 25
p - 25
p ack 25
l and</w> 25
t le</w> 25
m ant 25
j ale 25
s itt 25
n ada</w> 25
n ico</w> 25
u al</w> 25
f fic</w> 25
d ela</w> 25
h ado</w> 25
z ,</w> 25
ó gi 25
y ho 25
y 's</w> 25
an o 25
ar ma 25
es f 25
es s.</w> 25
co lar 25
ca í 25
ca ke.</w> 25
ro - 25
la cros 25
do ra</w> 25
lo se 25
qu ente.</w> 25
ic e.</w> 25
to ma 25
se a 25
on al 25
cam bal 25
me x 25
sh ado 25
bal ls.</w> 25
fo g 25
fo go</w> 25
per s</w> 25
le t</w> 25
le ash</w> 25
tra ffic</w> 25
gar b</w> 25
mar gem</w> 25
des ig 25
des cem</w> 25
comp ras.</w> 25
colo .</w> 25
flo ating</w> 25
ni ght 25
mon ta</w> 25
cab ine</w> 25
foo tball.</w> 25
pal ha</w> 25
go ali 25
cur ly</w> 25
behin d.</w> 25
cli entes</w> 25
tent am</w> 25
ten ding</w> 25
danc e.</w> 25
danc ing.</w> 25
dad es.</w> 25
ga ge</w> 25
surf .</w> 25
dei x 25
blo use</w> 25
fru tas.</w> 25
gol f 25
gol eiro</w> 25
dr um</w> 25
sorri .</w> 25
off ice</w> 25
neg ros</w> 25
pes ca</w> 25
umbrel las</w> 25
reuni do</w> 25
sai as</w> 25
grand e.</w> 25
compri dos</w> 25
Chil d</w> 25
chas e</w> 25
cir cu 25
milit ar</w> 25
amp ;</w> 25
event o.</w> 25
fin ish 25
deser to.</w> 25
conser tar</w> 25
quar to</w> 25
bom be 25
concer t</w> 25
públi ca.</w> 25
perform ance.</w> 25
exi bindo</w> 25
festiv al.</w> 25
aliment os</w> 25
vaz ia.</w> 25
audi ence</w> 25
femin ino</w> 25
sorv ete.</w> 25
trá fe 25
fres h</w> 25
rec ei 25
teenag ers</w> 25
den im</w> 25
maraton a</w> 25
Yor k</w> 25
pne u</w> 25
lix o.</w> 25
uniformiz ados</w> 25
ferrament as</w> 25
chef s</w> 25
tron co</w> 25
sofá .</w> 25
telesco pe</w> 25
infla table</w> 25
skin ned</w> 25
língu a</w> 25
tunn el.</w> 25
camoufla ge</w> 25
yho un 25
a cou 24
a way.</w> 24
a baixo</w> 24
a camp 24
r í 24
r i</w> 24
o rel 24
p aci 24
e la,</w> 24
n as 24
n ess</w> 24
g an 24
g ai 24
g am</w> 24
d et 24
ç ão,</w> 24
ê s.</w> 24
D onal 24
B a 24
y mp 24
W al 24
ar qui 24
en s 24
ho ne</w> 24
re unindo</w> 24
ro n 24
ro ut 24
it em</w> 24
est i 24
st or 24
st ation</w> 24
la ma</w> 24
la te</w> 24
do g 24
lo tado.</w> 24
at ent 24
at s.</w> 24
at ting</w> 24
par al 24
or a</w> 24
ad y</w> 24
ad mir 24
ur ando</w> 24
to ol 24
pe e 24
pe ito</w> 24
ru gby</w> 24
si zed</w> 24
po od 24
ut s</w> 24
am eri 24
as s 24
ne ,</w> 24
ta dor</w> 24
inh a.</w> 24
ci mento.</w> 24
gir l,</w> 24
bu ying</w> 24
fron t.</w> 24
te to</w> 24
des k.</w> 24
des calça</w> 24
pra tos</w> 24
pro jet 24
fe e 24
mes ma</w> 24
mon u 24
av ent 24
ck e 24
cer ca 24
por ta.</w> 24
que ira</w> 24
der s.</w> 24
fil eira</w> 24
ban heira</w> 24
tr y</w> 24
bei j 24
gi z</w> 24
bea ch,</w> 24
moto ciclistas</w> 24
ped al 24
ped ras.</w> 24
dis play.</w> 24
vel ho,</w> 24
bik es.</w> 24
var and 24
escu ros,</w> 24
eat ing.</w> 24
vermel hos.</w> 24
stic ks.</w> 24
aga cha</w> 24
algu ém.</w> 24
tro mp 24
dri ver</w> 24
ste ep</w> 24
color s</w> 24
instrument os.</w> 24
ther ,</w> 24
Jo h 24
tele f 24
off .</w> 24
guitar rista</w> 24
over alls</w> 24
orn ament 24
escal a</w> 24
long e.</w> 24
anti go</w> 24
graf ite.</w> 24
skir ts</w> 24
milit ares</w> 24
appe ar</w> 24
cen ário</w> 24
hap pil 24
pedest res.</w> 24
cle an</w> 24
rocho sa.</w> 24
land scap 24
suspen ded</w> 24
cinz a,</w> 24
telh ado.</w> 24
inf ant 24
musici an</w> 24
sold ado</w> 24
sold ados</w> 24
class room</w> 24
elétri ca</w> 24
Garo t 24
ton gue</w> 24
door way</w> 24
jardi m.</w> 24
sem elh 24
circ le</w> 24
anúnci o</w> 24
brown -haired</w> 24
demon stra 24
atta ched</w> 24
profes sional</w> 24
20 1 24
bigo de</w> 24
camu fla 24
casa cos</w> 24
Pap ai</w> 24
eit her</w> 24
bombe iro</w> 24
acou stic</w> 24
ameri can</w> 24
a in 23
c es.</w> 23
o ed</w> 23
o cup 23
p air</w> 23
l y 23
j apon 23
s pre 23
n ele.</w> 23
g a.</w> 23
f uma</w> 23
f ir 23
f ita</w> 23
f ast</w> 23
f icando</w> 23
d s,</w> 23
v inho</w> 23
ã s</w> 23
w ag 23
A dul 23
S k 23
S ete</w> 23
D e 23
P i 23
M ale</w> 23
G er 23
B i 23
T ex 23
y ing.</w> 23
y s,</w> 23
. "</w> 23
in vol 23
ar row</w> 23
re don 23
ca s,</w> 23
ca dor</w> 23
it y.</w> 23
ma t.</w> 23
est ú 23
est ava</w> 23
st il 23
st ica</w> 23
ra pi 23
ra bo</w> 23
qu es</w> 23
qu ase</w> 23
at ti 23
ch es.</w> 23
ch ão,</w> 23
ad eira</w> 23
to res</w> 23
to ys</w> 23
se is</w> 23
se un 23
pe ça</w> 23
il ar 23
ac ting</w> 23
si x</w> 23
li e</w> 23
de ,</w> 23
car to 23
ne ve,</w> 23
fo c 23
fo f 23
fo go.</w> 23
ta ken</w> 23
us ar</w> 23
tra vel 23
Do g</w> 23
mar t 23
bu cking</w> 23
fi o</w> 23
ag es</w> 23
caminh ando.</w> 23
te c 23
te ,</w> 23
te ach 23
sho wn</w> 23
comp ete</w> 23
cas amento.</w> 23
groun d,</w> 23
row ing</w> 23
biciclet a,</w> 23
fe ira</w> 23
ser ra</w> 23
mon o 23
ce ,</w> 23
air por 23
tri ck.</w> 23
sa cos</w> 23
cost a.</w> 23
sun glasses.</w> 23
beb e</w> 23
pat ter 23
Se ven</w> 23
moto riz 23
dis co</w> 23
dent i 23
sto s.</w> 23
assist indo.</w> 23
vel mente</w> 23
dire ita.</w> 23
escu ros.</w> 23
eat s</w> 23
sel l</w> 23
bag un 23
eri a.</w> 23
quin ho.</w> 23
esco vando</w> 23
bebi das.</w> 23
kne els</w> 23
pit cher</w> 23
mús ico</w> 23
ey e</w> 23
tou ching</w> 23
mergul h 23
fin al</w> 23
homen s.</w> 23
tin ta</w> 23
para chut 23
cois as</w> 23
vôle i.</w> 23
examin ando</w> 23
rob es</w> 23
proje ct</w> 23
obst ac 23
blu e.</w> 23
competi ção.</w> 23
No va</w> 23
vegetabl es.</w> 23
kaya k</w> 23
Yor k.</w> 23
mirro r.</w> 23
runn ing.</w> 23
soldi ers</w> 23
casu al</w> 23
microsco pe.</w> 23
discut indo</w> 23
igre ja.</w> 23
jugg ling</w> 23
grisal hos</w> 23
encar aco 23
apan ese</w> 23
malabaris mos</w> 23
vas so 23
port ão</w> 23
lant er 23
aer opor 23
botto m</w> 23
procur ando</w> 23
méd ico</w> 23
esf reg 23
cambal ho 23
goali e</w> 23
b e.</w> 22
a w 22
a gu 22
o ga</w> 22
- skinned</w> 22
t ada.</w> 22
m er.</w> 22
m ore</w> 22
u do</w> 22
f ly</w> 22
v irando</w> 22
z ing</w> 22
w ra 22
S ant 22
k ers.</w> 22
é ci 22
C ão</w> 22
es con 22
co mer 22
co ast 22
er e 22
ma t</w> 22
ma sk 22
do gs.</w> 22
ri ac 22
ri ders</w> 22
at es</w> 22
at let 22
so bre 22
or ch 22
ad as,</w> 22
se par 22
se at</w> 22
se ems</w> 22
il ha</w> 22
si ve</w> 22
po le 22
br ul 22
sh el 22
de l</w> 22
gu n</w> 22
gu ard</w> 22
gu eira.</w> 22
car eta</w> 22
ta dos</w> 22
per to.</w> 22
out side,</w> 22
mo ves</w> 22
tra tor</w> 22
res ,</w> 22
ei ras.</w> 22
cachor rin 22
fi ght</w> 22
ou to 22
te m 22
te et 22
pi ge 22
wa ves.</w> 22
mi x 22
pin ta</w> 22
cas cal 22
pr en 22
ment os</w> 22
biciclet as.</w> 22
ser ve</w> 22
ser ving</w> 22
pho ne,</w> 22
he els</w> 22
sal i 22
sal a.</w> 22
back wards</w> 22
tur qu 22
ex tre 22
clo sed</w> 22
clo th</w> 22
bas e.</w> 22
col a</w> 22
side walk,</w> 22
liv ing</w> 22
liv re,</w> 22
fac es</w> 22
ben ding</w> 22
sun .</w> 22
sc ra 22
tent i 22
pl es</w> 22
pl ano</w> 22
pat ro 22
equip es</w> 22
pon d.</w> 22
pain ts</w> 22
ff y</w> 22
surf a</w> 22
fen ced</w> 22
climb er</w> 22
azu is,</w> 22
jan elas</w> 22
esp éci 22
au dit 22
pá ra- 22
fu ma 22
bow l.</w> 22
reuni ão</w> 22
reuni ram</w> 22
hoo ded</w> 22
escur as</w> 22
box .</w> 22
cru zando</w> 22
tran seun 22
sha ped</w> 22
plan o.</w> 22
wel l</w> 22
inver no.</w> 22
volley ball.</w> 22
she et</w> 22
bott le.</w> 22
examin ing</w> 22
bru shing</w> 22
hal f</w> 22
desli za</w> 22
mano bras</w> 22
pássar os</w> 22
esten de</w> 22
decora ted</w> 22
pó lo</w> 22
vaz i 22
rap az 22
shovel .</w> 22
rece p 22
rodei o</w> 22
suit ,</w> 22
churras queira</w> 22
condu z 22
roller bla 22
equili bra</w> 22
giná si 22
carrin ho.</w> 22
próxi ma</w> 22
slo pe.</w> 22
Nat al.</w> 22
espir rando</w> 22
microscópi o.</w> 22
maratho n</w> 22
stadi um</w> 22
participat ing</w> 22
ima ge</w> 22
belo w.</w> 22
passag eiros</w> 22
acab a</w> 22
cabel o.</w> 22
tún ica</w> 22
amu sement</w> 22
horiz on 22
tab le,</w> 22
cliff .</w> 22
rú g 22
neck la 22
proximi dades.</w> 22
bandan na</w> 22
Mc Donal 22
arqui ban 22
Ger man</w> 22
a ma 21
a is 21
a cabo 21
c y</w> 21
- up</w> 21
p er</w> 21
p apé 21
l anc 21
s cu 21
s quar 21
n am 21
n atu 21
u ,</w> 21
h itting</w> 21
â mic 21
ó quei 21
k no 21
I n 21
J apanese</w> 21
in stal 21
ar m.</w> 21
es a.</w> 21
en ch 21
er gu 21
re ad</w> 21
re d-hair</w> 21
it ar</w> 21
it em 21
th rown</w> 21
la p</w> 21
la y 21
do br 21
lo go</w> 21
ent s</w> 21
ent rada</w> 21
so lo.</w> 21
par ci 21
par quinho.</w> 21
ad just 21
pe ace</w> 21
ru bb 21
il hando</w> 21
po ça</w> 21
be z 21
sh aring</w> 21
de las.</w> 21
we a 21
anc y</w> 21
ci do.</w> 21
con ven 21
con cent 21
mo ti 21
mo vendo</w> 21
ei ros.</w> 21
pi t</w> 21
pi er</w> 21
bol inhas</w> 21
brin car</w> 21
sho e</w> 21
calç ão</w> 21
mu ddy</w> 21
tur ning</w> 21
ex ten 21
pass eng 21
ck ed</w> 21
col o</w> 21
pic tures.</w> 21
du st 21
convers a</w> 21
micro fon 21
moto r</w> 21
equip amentos</w> 21
cabe ç 21
jun g 21
dire ita</w> 21
azul - 21
pis o</w> 21
stic king</w> 21
colori do.</w> 21
blo cks</w> 21
base ball.</w> 21
jan tar</w> 21
snowboar d.</w> 21
ste p</w> 21
esqu is</w> 21
sorri dent 21
esp elho</w> 21
esp elho.</w> 21
cour t</w> 21
brilh antes</w> 21
americ ana</w> 21
pan ela</w> 21
coun ter.</w> 21
fish .</w> 21
ramp a.</w> 21
compri das</w> 21
rail ing.</w> 21
photograp h</w> 21
exam ina</w> 21
oper ating</w> 21
din ing</w> 21
wel ding</w> 21
attemp t</w> 21
prin t</w> 21
deser t.</w> 21
plant as</w> 21
shoul ders</w> 21
shoul der.</w> 21
estátu a.</w> 21
hal l 21
ajoelh a</w> 21
lef t.</w> 21
inf ant</w> 21
ví de 21
spectat ors.</w> 21
vid ro</w> 21
athlet ic</w> 21
cr ying</w> 21
rec lin 21
maraton a.</w> 21
crou ches</w> 21
mirro r</w> 21
check ered</w> 21
maratho n.</w> 21
advers ário</w> 21
Wh ite</w> 21
som bra</w> 21
acrob aci 21
trase ira</w> 21
navi o</w> 21
nave gando</w> 21
mater i 21
maqui agem</w> 21
alc anç 21
fight ers</w> 21
acarici ando</w> 21
terce iro</w> 21
waterfal l.</w> 21
tamb ém</w> 21
pija ma</w> 21
haw k</w> 21
paja mas</w> 21
tropi cal</w> 21
fee ding</w> 21
happil y</w> 21
Sant a</w> 21
pára- que 21
acabo u</w> 21
a bra 20
a is,</w> 20
c ran 20
c ts</w> 20
p es.</w> 20
i es</w> 20
l â 20
t w 20
t ut 20
e f 20
s amente</w> 20
u í 20
f re 20
h ar</w> 20
R e 20
ê ndi 20
A n 20
S en 20
k eboar 20
é r 20
M édi 20
C or 20
ar ma</w> 20
es cav 20
re li 20
ro ni 20
ro om 20
ma ch 20
th ers</w> 20
al so</w> 20
st ring</w> 20
la ma.</w> 20
la wn.</w> 20
do min 20
ra cer</w> 20
lo g</w> 20
lo iras</w> 20
lo ading</w> 20
ent reg 20
at tenti 20
so ci 20
par que,</w> 20
or qu 20
ur gi 20
on ed</w> 20
on ly</w> 20
po mbo 20
ver se</w> 20
me al.</w> 20
op ren 20
men s 20
as cen 20
car ru 20
ne la.</w> 20
ne igh 20
ne opren 20
ado s,</w> 20
mo del</w> 20
tra ves 20
tra cks.</w> 20
wat ers.</w> 20
gar ba 20
jog adora</w> 20
lar ge,</w> 20
mar ried</w> 20
bu t</w> 20
caminh ão.</w> 20
no va</w> 20
no vo</w> 20
te cido</w> 20
ran ge</w> 20
pa s.</w> 20
mer ce 20
dres s,</w> 20
wa keboar 20
bar ra</w> 20
comp ani 20
ba ilar 20
je wel 20
mulher es.</w> 20
cas qu 20
pul l</w> 20
man i 20
man e 20
man ga</w> 20
uni vers 20
colo r</w> 20
stre ets.</w> 20
fe ito</w> 20
flo r</w> 20
yel low 20
mu zz 20
bran cos.</w> 20
bran cos,</w> 20
pass ar</w> 20
marro m,</w> 20
rest s</w> 20
foo t 20
rá pi 20
sur face.</w> 20
tu b</w> 20
tu bo</w> 20
tu ristas</w> 20
tor y</w> 20
que bra 20
go al</w> 20
ven da</w> 20
ele f 20
ele ph 20
band e 20
some on 20
ban quinho</w> 20
sc reen</w> 20
mei o- 20
camer a,</w> 20
ici ais</w> 20
moto rista</w> 20
soc ks</w> 20
sto ol</w> 20
vel y</w> 20
rol ando</w> 20
min i 20
hil l 20
shirt s.</w> 20
sol o</w> 20
sand uí 20
guar d 20
apresent am</w> 20
jan gada</w> 20
em brul 20
gol .</w> 20
esqu ina.</w> 20
sli des</w> 20
cloth es.</w> 20
sti ca.</w> 20
au to 20
fli ght</w> 20
asiáti ca.</w> 20
cha in 20
rac et 20
spor ting</w> 20
gal ho</w> 20
esco va</w> 20
rail road</w> 20
atravess am</w> 20
sin u 20
clar a</w> 20
cir urgi 20
bir ds</w> 20
apro ve 20
ach o</w> 20
ale mão</w> 20
particip am</w> 20
desen ho</w> 20
plá stico.</w> 20
Ol ymp 20
pô ster</w> 20
rocho sa</w> 20
ajoelh ado</w> 20
ajoelh ada</w> 20
come mor 20
jean s.</w> 20
perform ance</w> 20
alle y</w> 20
but ton</w> 20
cau ght</w> 20
hair ,</w> 20
individu al</w> 20
nati ve</w> 20
agach ado</w> 20
sculp ture</w> 20
gig ante</w> 20
páti o.</w> 20
runn ers</w> 20
distânci a</w> 20
soldi er</w> 20
aren o 20
mass a</w> 20
frisbe e.</w> 20
accordi on.</w> 20
stud ent</w> 20
lun ch</w> 20
profis sional</w> 20
Jog adores</w> 20
trampoli m</w> 20
jant ar.</w> 20
combin ando</w> 20
tam an 20
cacho eira.</w> 20
nubla do.</w> 20
laborat ório</w> 20
atent amente</w> 20
Garot inho</w> 20
mart elo</w> 20
teach er</w> 20
riac ho.</w> 20
teet h</w> 20
espéci e</w> 20
dobr á 20
parci almente</w> 20
neigh bor 20
garba ge</w> 20
b ad 19
a ban 19
o us 19
o bras</w> 19
p ent 19
p ão</w> 19
p her 19
l ance</w> 19
t ter 19
m ly</w> 19
e th 19
s ele 19
n arrow</w> 19
g ers</w> 19
g room</w> 19
g gage</w> 19
f t</w> 19
h a,</w> 19
h amb 19
h óquei 19
z es.</w> 19
z za</w> 19
w rit 19
A t</w> 19
C am 19
C row 19
B lon 19
an de</w> 19
ar ra 19
es pre 19
es gri 19
co - 19
co ra 19
co at,</w> 19
re de.</w> 19
it ,</w> 19
ma ç 19
est ande</w> 19
la s,</w> 19
do s,</w> 19
do ors.</w> 19
ra ck.</w> 19
lo u 19
at 's</w> 19
so bem</w> 19
so neca</w> 19
to we 19
se cur 19
on das.</w> 19
cam inho.</w> 19
ac t</w> 19
ut a</w> 19
me d 19
pla cas</w> 19
li qui 19
jo s</w> 19
jo el 19
de dos</w> 19
de part 19
de vic 19
gu in 19
di z 19
rou pas.</w> 19
ne ck</w> 19
ti ram</w> 19
le aving</w> 19
le dge</w> 19
mp .</w> 19
play er.</w> 19
con sist 19
su ja.</w> 19
bla zer</w> 19
cu sto 19
no ,</w> 19
no ivo</w> 19
ou ve</w> 19
te am.</w> 19
pi er 19
bol sa.</w> 19
bol has.</w> 19
her sel 19
mer s.</w> 19
wa it 19
calç ad 19
ter ed</w> 19
ba b 19
ba ir 19
cas amento</w> 19
boar d 19
pro fun 19
sal e.</w> 19
ni cas</w> 19
ex hi 19
culo s.</w> 19
pare des</w> 19
pare cendo</w> 19
air ,</w> 19
snow -covered</w> 19
go al.</w> 19
liv ros</w> 19
cur so.</w> 19
ele g 19
ban h 19
tr anç 19
grama ,</w> 19
prédi os</w> 19
danç a.</w> 19
danç ando.</w> 19
pat as</w> 19
corri mão</w> 19
íci o</w> 19
rel ógi 19
bat e 19
bat e</w> 19
compet em</w> 19
sel ls</w> 19
climb ing.</w> 19
sol ,</w> 19
deit a</w> 19
swim suit</w> 19
segu e</w> 19
inc êndi 19
em ente</w> 19
eri a</w> 19
costu me.</w> 19
pap el 19
lev ando</w> 19
chut ar</w> 19
inter se 19
quad ro</w> 19
quad ro.</w> 19
amarel o,</w> 19
walk way</w> 19
long -haired</w> 19
hoo p</w> 19
compri da</w> 19
rist s</w> 19
cé u.</w> 19
box es</w> 19
vie wing</w> 19
mat ch</w> 19
din ner</w> 19
pendu radas</w> 19
gril ling</w> 19
lav and 19
practic e</w> 19
fore ground.</w> 19
fore ground</w> 19
quar ter 19
veí culos</w> 19
va i</w> 19
cle ans</w> 19
youn g,</w> 19
buck et.</w> 19
shi p</w> 19
come ç 19
marci ais.</w> 19
trampo line.</w> 19
ast ern</w> 19
esquer da</w> 19
fing ers</w> 19
cr í 19
grel ha</w> 19
ham mer</w> 19
urban a.</w> 19
bre ad</w> 19
stret ched</w> 19
bubbl es.</w> 19
transpor te</w> 19
obstá culo.</w> 19
veri ficando</w> 19
ces so</w> 19
nat ação</w> 19
pet ting</w> 19
aren a.</w> 19
carrin hos</w> 19
backpack s</w> 19
ador me 19
frisbe e</w> 19
rep leta</w> 19
máquin a.</w> 19
cadei ra.</w> 19
acorde ão</w> 19
acorde ão.</w> 19
accordi on</w> 19
ami go</w> 19
balcon y</w> 19
cere mon 19
refer ee</w> 19
carnav al.</w> 19
pesco ço</w> 19
bambol ê</w> 19
long-slee ved</w> 19
cír culo</w> 19
íngre me</w> 19
saxop hone</w> 19
negóci os</w> 19
eletr ôni 19
Ori ente</w> 19
light s.</w> 19
arremess ador</w> 19
dinh eiro</w> 19
police man</w> 19
terren o</w> 19
mustach e</w> 19
varand a.</w> 19
cambalho ta</w> 19
rapaz es</w> 19
âmic a</w> 19
item s.</w> 19
abra ça</w> 19
Sen hora</w> 19
reli gi 19
towe l</w> 19
b elo</w> 18
a baix 18
o d</w> 18
i ra.</w> 18
m ural.</w> 18
j as.</w> 18
e ar</w> 18
s s.</w> 18
s ac 18
n e.</w> 18
n ur 18
n ap 18
n ers</w> 18
g ente</w> 18
g ate</w> 18
f á 18
f an 18
f ancy</w> 18
d ado</w> 18
d ly</w> 18
h un 18
â mi 18
S tu 18
M ã 18
T - 18
U ni 18
E s 18
L ar 18
L ady</w> 18
ar co</w> 18
ar t.</w> 18
ar ms.</w> 18
co w</w> 18
co pos</w> 18
er 's</w> 18
re d.</w> 18
ro do 18
ro da</w> 18
it al</w> 18
est ed</w> 18
st em</w> 18
la u 18
la y</w> 18
la dril 18
do n</w> 18
do ck.</w> 18
ri st</w> 18
ent usi 18
at ing 18
bo ne 18
bo ats</w> 18
par as 18
par quinho</w> 18
to ys.</w> 18
se ,</w> 18
se gun 18
pe ,</w> 18
ru ivo</w> 18
po t</w> 18
po de</w> 18
is es</w> 18
sh ad 18
op s</w> 18
op on 18
we ight</w> 18
bal ler 18
car e 18
ta il</w> 18
le gg 18
vest e</w> 18
gra vel</w> 18
cor tar</w> 18
menin o.</w> 18
su mmer</w> 18
vi stas</w> 18
mar o 18
mar ch 18
bu bble</w> 18
ag indo</w> 18
sk y 18
pi ano.</w> 18
des pe 18
sho t.</w> 18
lon ge</w> 18
pra ti 18
mi xing</w> 18
jump suit</w> 18
back yard.</w> 18
tur ns</w> 18
chapé u.</w> 18
av el 18
av am</w> 18
ge ar.</w> 18
reg ata</w> 18
óculo s.</w> 18
list ras</w> 18
der ,</w> 18
der ing</w> 18
der by</w> 18
lu ggage</w> 18
ele pí 18
fac es.</w> 18
ban cos</w> 18
ati vi 18
pl anta 18
hel ps</w> 18
viol in.</w> 18
dad e.</w> 18
pol es</w> 18
dent es.</w> 18
dent ro.</w> 18
dire ção.</w> 18
com em</w> 18
surf board.</w> 18
boo ks.</w> 18
dor s</w> 18
tow n.</w> 18
colori da.</w> 18
blo cos</w> 18
cã es.</w> 18
apresent ação.</w> 18
tê m</w> 18
windo ws</w> 18
cho co 18
motorcyc list</w> 18
bor ra 18
cow boys</w> 18
motociclet as</w> 18
most ly</w> 18
cha in</w> 18
orn ate</w> 18
cent er.</w> 18
Fi re 18
stair case.</w> 18
quad ri 18
caf e.</w> 18
aber to.</w> 18
sil hou 18
laugh s</w> 18
kne e</w> 18
fol ding</w> 18
lif t</w> 18
art es 18
lanç ando</w> 18
bun d 18
sapat os.</w> 18
carri age</w> 18
rode ado</w> 18
brea k 18
reali z 18
wheel chair</w> 18
kis s</w> 18
blan ket.</w> 18
dark -skinned</w> 18
tatto oed</w> 18
outf it.</w> 18
african a</w> 18
difer entes.</w> 18
afro-americ ana</w> 18
onloo kers.</w> 18
refei ção.</w> 18
nav y</w> 18
gig ante.</w> 18
curv ado</w> 18
figur e</w> 18
escrit ório</w> 18
Nat al</w> 18
máquin as</w> 18
stadi um.</w> 18
igre ja</w> 18
indivídu o</w> 18
indivídu os</w> 18
médi o</w> 18
vac a</w> 18
En quanto</w> 18
pron to</w> 18
possi bly</w> 18
nari z</w> 18
rack et</w> 18
professo r</w> 18
saxof one</w> 18
bast ão</w> 18
spin ning</w> 18
aquá tico</w> 18
vil la 18
St reet</w> 18
card board</w> 18
mob ile</w> 18
receb endo</w> 18
lacros se</w> 18
paral elepí 18
tec lado</w> 18
encaraco lado</w> 18
outo no.</w> 18
rubb er</w> 18
ér cit 18
neopren e</w> 18
traves se 18
univers it 18
Lar ge</w> 18
paralelepí pe 18
a frican</w> 17
r ó 17
c .</w> 17
c tor 17
o te 17
o cul 17
i ro 17
t ina</w> 17
t are 17
m is 17
m et.</w> 17
e ando</w> 17
e p.</w> 17
n esta</w> 17
g rá 17
v ei 17
v ira</w> 17
V i 17
í vel</w> 17
w ide</w> 17
F e 17
S ol 17
D J</w> 17
é t 17
G rande</w> 17
T V</w> 17
E x 17
y outh</w> 17
an as.</w> 17
es pal 17
co lar</w> 17
co at.</w> 17
re ma 17
re ci 17
ca i</w> 17
ma c 17
th umb 17
th day</w> 17
st ares</w> 17
la dd 17
ra dores</w> 17
ri s 17
ri ck 17
ri ght.</w> 17
ri acho</w> 17
lo y 17
lo tado</w> 17
bo ul 17
ic k 17
ic ano</w> 17
to ss 17
on a</w> 17
ac king</w> 17
ac tion</w> 17
sh av 17
de ci 17
de vice</w> 17
car d</w> 17
fo cu 17
per u 17
play ed</w> 17
ci a.</w> 17
ap p 17
con g 17
con f 17
mo m</w> 17
mo mento</w> 17
res s</w> 17
vi vas</w> 17
gar .</w> 17
ag e,</w> 17
caminh ada</w> 17
cal ly</w> 17
fr an 17
jov em.</w> 17
pi st 17
pi pe</w> 17
mer ch 17
sho pp 17
bro w 17
colo car</w> 17
stre et 17
stre am</w> 17
ve z</w> 17
hi st 17
ser vi 17
tur as</w> 17
mon ey</w> 17
ck ,</w> 17
unifor m.</w> 17
unifor med</w> 17
tri lh 17
clo th.</w> 17
gla ss.</w> 17
pal co,</w> 17
sa w</w> 17
sa bo 17
bas ket.</w> 17
fun ny</w> 17
pic k</w> 17
fiel d,</w> 17
can tor</w> 17
convers ation.</w> 17
che e 17
ben ches</w> 17
caval os.</w> 17
grama da</w> 17
hel met.</w> 17
pol ka</w> 17
vel o 17
vel ess</w> 17
cober tas</w> 17
com for 17
head scarf</w> 17
chu vo 17
emp res 17
cyc lists</w> 17
ani vers 17
ani mais</w> 17
bus ,</w> 17
drin ks.</w> 17
blo ws</w> 17
cai s.</w> 17
brinque dos.</w> 17
basket s</w> 17
instrument o.</w> 17
bag agem</w> 17
slee veless</w> 17
esp an 17
comen do.</w> 17
cut s</w> 17
edifíci os.</w> 17
cour se</w> 17
raf ting</w> 17
bor n</w> 17
bor bo 17
umbrel las.</w> 17
bli ote 17
fli pping</w> 17
fli p- 17
indi ana</w> 17
guitar ,</w> 17
asiáti co.</w> 17
pux ada</w> 17
pres a</w> 17
fl an 17
esco lar</w> 17
sap ato</w> 17
gre at</w> 17
sha de</w> 17
espor te</w> 17
graf ite</w> 17
amb as</w> 17
cen do.</w> 17
plant s.</w> 17
bateri sta</w> 17
lead ing</w> 17
cri ck 17
escul p 17
ilumin ada.</w> 17
spra ying</w> 17
pé ,</w> 17
clu b.</w> 17
barbe cu 17
gym na 17
refle ctive</w> 17
grel ha.</w> 17
listra da,</w> 17
medi cal</w> 17
memb er</w> 17
carta z.</w> 17
celebra ting</w> 17
stop ped</w> 17
equili brando</w> 17
giná stica</w> 17
Car a</w> 17
nev ada.</w> 17
gest ic 17
pesca r</w> 17
chor ando</w> 17
moun d</w> 17
vac u 17
estamp a</w> 17
enter tain 17
possi velmente</w> 17
belo w</w> 17
hospit al</w> 17
fur n 17
girl s,</w> 17
profis sion 17
grin ding</w> 17
inspec ting</w> 17
market place.</w> 17
estrel a</w> 17
rai sed</w> 17
tambo r</w> 17
ferrovi a.</w> 17
políci a</w> 17
tráfe go</w> 17
Tex as</w> 17
sali ência</w> 17
scu ba</w> 17
carru agem</w> 17
racet rack.</w> 17
Blon d</w> 17
lau gh</w> 17
maro on</w> 17
tare f 17
flip- flo 17
b i</w> 16
b loo 16
a é 16
r ing.</w> 16
c lean 16
c tor.</w> 16
o uro</w> 16
i e</w> 16
i an</w> 16
i denti 16
l ue</w> 16
m anto</w> 16
s ar 16
s la 16
s ite</w> 16
g estu 16
v ão</w> 16
R ed</w> 16
V ista</w> 16
V elho</w> 16
w arm</w> 16
A m 16
M us 16
C an 16
C af 16
B u 16
B rown</w> 16
E U 16
E uro 16
O n</w> 16
in es.</w> 16
in du 16
in tent 16
es pa 16
es cola</w> 16
co ach</w> 16
co ol</w> 16
re ma</w> 16
re ach</w> 16
re vista</w> 16
ca - 16
ro pes</w> 16
th at's</w> 16
al on 16
st a 16
st s</w> 16
st er.</w> 16
st ack 16
ra ises</w> 16
el ess</w> 16
un icyc 16
lo s</w> 16
lo cal.</w> 16
ent .</w> 16
ent ra</w> 16
at rá 16
bo che 16
bo lo.</w> 16
bo dy 16
se a</w> 16
wo men.</w> 16
po w 16
po sta</w> 16
ver .</w> 16
ver ti 16
me ,</w> 16
me iras</w> 16
sh ing 16
li br 16
li ve</w> 16
jo i 16
jo ckey</w> 16
gu e.</w> 16
men 's</w> 16
bal ls</w> 16
bal des</w> 16
di do</w> 16
di stri 16
ne a 16
fo gueira</w> 16
ta bul 16
ta ils</w> 16
bl ing</w> 16
ap l 16
ap ag 16
ap ren 16
con es.</w> 16
con junto</w> 16
mo d 16
tra ctor</w> 16
ai l</w> 16
chil d,</w> 16
mar inho</w> 16
mar tel 16
fi x 16
fi x</w> 16
ag it 16
no se</w> 16
no tur 16
bi t</w> 16
bi bliote 16
te l</w> 16
pi zz 16
her man</w> 16
sho vel</w> 16
bro ken</w> 16
mal ha</w> 16
man eira</w> 16
fe a 16
fe ita</w> 16
sal ão</w> 16
sal to.</w> 16
quet e.</w> 16
tur ned</w> 16
pass are 16
of icial</w> 16
tic a</w> 16
clo se 16
Pe dest 16
por ch</w> 16
go t</w> 16
col un 16
col lar 16
col um 16
can .</w> 16
can o</w> 16
guit ars</w> 16
lu va</w> 16
lu z.</w> 16
hand stand</w> 16
che ering</w> 16
fal l</w> 16
caval ga</w> 16
pl ant</w> 16
carreg am</w> 16
esca lar</w> 16
viol ino.</w> 16
dad e,</w> 16
win e</w> 16
win d 16
ga ita</w> 16
dire cti 16
com er</w> 16
skateboar ds</w> 16
eat h</w> 16
shirt s,</w> 16
sig n 16
cant ora</w> 16
sing ing.</w> 16
color ing</w> 16
post es</w> 16
cla y</w> 16
Men inos</w> 16
braç o.</w> 16
motorcyc les</w> 16
sof tball.</w> 16
pes o</w> 16
cour t 16
bor .</w> 16
len ços</w> 16
na ked</w> 16
indi anas</w> 16
chut e</w> 16
han g</w> 16
pux ado</w> 16
dra g 16
even ing</w> 16
caf e</w> 16
prote ção.</w> 16
mai ô 16
mai or</w> 16
box ing</w> 16
arti stas</w> 16
gre yhoun 16
scoo ters</w> 16
lif ting</w> 16
relax am</w> 16
frien ds.</w> 16
din o 16
paper s</w> 16
graf it 16
offic e.</w> 16
rode ada</w> 16
bir thday</w> 16
reali za</w> 16
diver tin 16
plant s</w> 16
jerse ys</w> 16
strol l</w> 16
pedest rians</w> 16
plat é 16
scen e.</w> 16
encost ada</w> 16
present ation</w> 16
rocho so.</w> 16
garraf as</w> 16
land .</w> 16
ilumin ado</w> 16
ilumin ado.</w> 16
inf anti 16
Gir ls</w> 16
pó dio</w> 16
arre mes 16
aliment ando</w> 16
estran g 16
esporti vo.</w> 16
verde - 16
dun a</w> 16
rain y</w> 16
shoo t</w> 16
lí qui 16
stret ching</w> 16
molh ado</w> 16
sculp ture.</w> 16
soz inha</w> 16
carta zes</w> 16
cross walk.</w> 16
trein ador</w> 16
discus sing</w> 16
imp res 16
enfrent am</w> 16
balanc es</w> 16
craf t</w> 16
gymn asi 16
goo d</w> 16
clas s.</w> 16
experi ment 16
apre cia</w> 16
apre ciando</w> 16
Mi dd 16
vist o</w> 16
jardi m</w> 16
appro aching</w> 16
apart ment</w> 16
Ess as</w> 16
flu ffy</w> 16
amon to 16
magaz ine</w> 16
descalç o</w> 16
adverti se 16
kil t</w> 16
compart ilhando</w> 16
gru pos</w> 16
engra x 16
booth .</w> 16
jale co</w> 16
sitt ing,</w> 16
estú dio</w> 16
tem po.</w> 16
rúg bi</w> 16
squar e.</w> 16
jung le</w> 16
yellow ,</w> 16
taman ho</w> 16
pher d</w> 16
hóquei .</w> 16
guin da 16
fá bri 16
Mã e</w> 16
cong reg 16
trilh a.</w> 16
esculp indo</w> 16
indu stri 16
b y 15
b is 15
b low</w> 15
b lea 15
b ili 15
a ç 15
a ut 15
a pla 15
a que 15
r ural.</w> 15
c is 15
c ue</w> 15
c lut 15
- like</w> 15
p õ 15
p ê 15
p pers</w> 15
i z 15
i stas</w> 15
l ã</w> 15
l es,</w> 15
t as 15
t rol 15
t ising</w> 15
e ars</w> 15
n ame</w> 15
g st</w> 15
f av 15
f ans</w> 15
f ãs</w> 15
v al 15
v inho.</w> 15
h us 15
h its</w> 15
R ol 15
ê me 15
z o 15
V en 15
í mp 15
w ire</w> 15
ó ia</w> 15
A .</w> 15
k n 15
C as 15
C lose 15
y ou</w> 15
' t</w> 15
L i 15
in d 15
in es</w> 15
in forma 15
ar ro 15
ar co- 15
en th 15
en vi 15
en sin 15
en cy</w> 15
co t 15
co ro</w> 15
er gui 15
ho se.</w> 15
re tra 15
re des</w> 15
th ings</w> 15
est a 15
est one</w> 15
st ro 15
st ack</w> 15
la de 15
la da.</w> 15
la dos</w> 15
la deira</w> 15
do ors</w> 15
do ctor</w> 15
ra ising</w> 15
ent rar</w> 15
qu ais</w> 15
at e 15
bo s</w> 15
et a.</w> 15
ad .</w> 15
to u</w> 15
pe a 15
ru ss 15
ac ena</w> 15
si .</w> 15
po ,</w> 15
po tter 15
ut en 15
wh il 15
is p 15
pla te.</w> 15
be co.</w> 15
sh ap 15
li z 15
op en 15
op en.</w> 15
bal ding</w> 15
bal ance</w> 15
di da</w> 15
as sent 15
as su 15
car ving</w> 15
ti ed</w> 15
ta g</w> 15
ta cada</w> 15
per corre</w> 15
le c 15
le ar 15
ado res.</w> 15
anc i 15
gra de.</w> 15
cor n</w> 15
con e</w> 15
con vés</w> 15
menin o,</w> 15
tra ff 15
vi sta.</w> 15
crianç a,</w> 15
gar ç 15
gar agem.</w> 15
bu y</w> 15
fi gu 15
caminh ante</w> 15
da y 15
sk il 15
te e 15
pi es</w> 15
pas ser 15
mer ous</w> 15
sho w 15
mi d</w> 15
pin e</w> 15
boar ds</w> 15
row .</w> 15
amar elas.</w> 15
amar ela,</w> 15
fe it 15
fe et.</w> 15
pho tos</w> 15
back s</w> 15
av ai 15
ge m.</w> 15
ce p 15
sa co 15
tu do</w> 15
por tas</w> 15
go - 15
go sta</w> 15
du mp 15
can do.</w> 15
der ru 15
ben eath</w> 15
ten da.</w> 15
the at 15
bik ers</w> 15
pon d</w> 15
pon ta</w> 15
bat ter</w> 15
pur se.</w> 15
ha - 15
boo k 15
fen cing</w> 15
colori das.</w> 15
hat s.</w> 15
deit adas</w> 15
tro nic</w> 15
swim mer</w> 15
bot ão</w> 15
chin es 15
bag pi 15
post e.</w> 15
cla d</w> 15
cho ir</w> 15
flow ered</w> 15
hu gs</w> 15
pes ca.</w> 15
pes car.</w> 15
pá .</w> 15
raf t</w> 15
pel udo</w> 15
most ram</w> 15
rac es</w> 15
rela x</w> 15
kic k 15
cent er</w> 15
pres o</w> 15
reuni u</w> 15
surroun ding</w> 15
veget ais.</w> 15
esco la.</w> 15
mou th 15
está dio.</w> 15
smo kes</w> 15
anti go.</w> 15
mochil as</w> 15
tran s 15
oper ando</w> 15
oper ários</w> 15
clar o.</w> 15
dru mmer</w> 15
mergul ha</w> 15
fin ish</w> 15
degra us.</w> 15
deser t</w> 15
strol ler.</w> 15
har ness</w> 15
parti ally</w> 15
cest as</w> 15
bru sh</w> 15
bru sh.</w> 15
vende dores</w> 15
elec tronic</w> 15
blan ket 15
Trabalh ador</w> 15
tatu agens</w> 15
competiti on</w> 15
tatto os</w> 15
eng aged</w> 15
No el</w> 15
african as</w> 15
femin ina</w> 15
squ atting</w> 15
esporti vo</w> 15
fotogra fia</w> 15
refle xi 15
lapto ps</w> 15
churras co</w> 15
urban a</w> 15
crou ching</w> 15
remo vendo</w> 15
cross walk</w> 15
flutu ando</w> 15
bil l 15
figur a</w> 15
escrit ório.</w> 15
high - 15
microsco pe</w> 15
microscópi o</w> 15
pí er</w> 15
rep air</w> 15
pelú cia.</w> 15
participat e</w> 15
Wh ile</w> 15
recém- cas 15
Lon don</w> 15
execut a</w> 15
andai me</w> 15
trail er.</w> 15
inflá vel</w> 15
Jog ador</w> 15
follo wing</w> 15
bin ocul 15
aper tando</w> 15
star ting</w> 15
amon gst</w> 15
inspecion ando</w> 15
cheerlead ers</w> 15
aproxi ma</w> 15
arbu st 15
arbu stos.</w> 15
loun ging</w> 15
funcion ários</w> 15
colle ge</w> 15
rasp ando</w> 15
group s</w> 15
podi um</w> 15
prot et 15
pudd le</w> 15
bloque ar</w> 15
smal ler</w> 15
bush es.</w> 15
academi a.</w> 15
colar inho</w> 15
Joh n</w> 15
infant il.</w> 15
semelh ante</w> 15
bagun ç 15
obstac le</w> 15
comer ci 15
orch estra</w> 15
passeng ers</w> 15
Médi o</w> 15
room ,</w> 15
someon e's</w> 15
Crow d</w> 15
secur ity</w> 15
quarter back</w> 15
planta s.</w> 15
ércit o</w> 15
shav ed</w> 15
hist óri 15
flip-flo ps</w> 15
atrá s.</w> 15
court yard.</w> 15
b al</w> 14
a bre</w> 14
a head</w> 14
a compan 14
a guard 14
r is</w> 14
c ree 14
c t.</w> 14
c cer</w> 14
- down</w> 14
p inh 14
p ar</w> 14
p lu 14
p ush</w> 14
i dando</w> 14
l es 14
l ing 14
j i 14
j óquei</w> 14
s í 14
s cal 14
s ets</w> 14
s nea 14
n ets</w> 14
u mp 14
f ree</w> 14
v ing.</w> 14
R un 14
w ho 14
w s.</w> 14
w ich</w> 14
w ading</w> 14
1 1</w> 14
F or 14
é c 14
M il 14
C au 14
T ou 14
y ed</w> 14
in hos</w> 14
in fer 14
ar n 14
es pe 14
en gin 14
co ol 14
co te</w> 14
co bbl 14
ho cke 14
re bo 14
re par 14
re di 14
re tri 14
ca dos</w> 14
ma pa</w> 14
th in</w> 14
st ar</w> 14
st art</w> 14
la tas</w> 14
do ces</w> 14
ri b 14
ir ri 14
qu et</w> 14
at e.</w> 14
at a.</w> 14
ch á</w> 14
to - 14
to pl 14
se l</w> 14
pe ering</w> 14
ru as.</w> 14
ut .</w> 14
be gin 14
sh are</w> 14
li m 14
esso .</w> 14
am s</w> 14
hor ses.</w> 14
car t 14
car s.</w> 14
ti le</w> 14
ti ge 14
fo to,</w> 14
fo gueira.</w> 14
ta xi</w> 14
le gu 14
mp ri 14
ado ras</w> 14
ing redi 14
ap ple</w> 14
con s 14
con e.</w> 14
ant e,</w> 14
ant es,</w> 14
mo ment</w> 14
vi o 14
ei ra 14
cachor ro- 14
chil d's</w> 14
hol e.</w> 14
cu idando</w> 14
cu mpri 14
olh a.</w> 14
cal led</w> 14
vermelh as,</w> 14
bi king</w> 14
te iro</w> 14
pi g 14
pi zza</w> 14
wa ys</w> 14
sho es,</w> 14
bar ,</w> 14
bar cos</w> 14
pra ta</w> 14
comp rar</w> 14
ter nos</w> 14
je t</w> 14
pin tada</w> 14
cas as</w> 14
mal as</w> 14
man u 14
man ti 14
pro v 14
flo at</w> 14
mu d.</w> 14
tur b 14
chapé u,</w> 14
shor t 14
of ere 14
cab ana</w> 14
pu mp 14
air bor 14
tri cyc 14
pal mei 14
tor y.</w> 14
tor cendo</w> 14
go l</w> 14
col lie</w> 14
ven der</w> 14
ven dor.</w> 14
du ck</w> 14
cin e 14
can tam</w> 14
cur b</w> 14
lu min 14
carr y</w> 14
caval heiros</w> 14
ban k</w> 14
ban ner.</w> 14
ban heiro</w> 14
tr ân 14
cli entes.</w> 14
sun set</w> 14
lin es</w> 14
fa ke</w> 14
adul to.</w> 14
cre w</w> 14
del i 14
equip amento.</w> 14
pen s 14
dire ction</w> 14
muit a</w> 14
cober tura</w> 14
pon y 14
var as</w> 14
escu ro,</w> 14
boo ks</w> 14
emp ilh 14
emp loy 14
cant ando.</w> 14
lut ador</w> 14
rox o.</w> 14
sand al 14
hat s,</w> 14
guar da</w> 14
cai r</w> 14
fru it.</w> 14
snowboar ding</w> 14
cat cher</w> 14
em bar 14
t- shirts</w> 14
post er</w> 14
sorri so</w> 14
esp et 14
gr itando</w> 14
tabl es.</w> 14
hu dd 14
hu eta</w> 14
So on 14
So ccer</w> 14
cros ses</w> 14
concre te.</w> 14
indi ano</w> 14
cha mas</w> 14
inter ess 14
inter acting</w> 14
spor t</w> 14
pie ces</w> 14
pres ente</w> 14
caix a.</w> 14
caf et 14
whe el.</w> 14
mai ori 14
nad adores</w> 14
machin ery.</w> 14
fantasi adas</w> 14
sil ly</w> 14
gre en,</w> 14
stra ight</w> 14
sha kes</w> 14
relax a</w> 14
gy m</w> 14
new born</w> 14
cra y 14
up on</w> 14
lanç a</w> 14
chur ch</w> 14
plan e</w> 14
wheel bar 14
prin ci 14
deser to</w> 14
ori ent 14
ale gre 14
va queiro</w> 14
vehic les</w> 14
lead s</w> 14
suspen so</w> 14
helmet ,</w> 14
Co mp 14
avi ão.</w> 14
squ are</w> 14
spla shes</w> 14
escala da.</w> 14
od d</w> 14
Chin a.</w> 14
hon ete</w> 14
acer ta</w> 14
figh ter</w> 14
ham mer.</w> 14
elétri ca.</w> 14
tá xi</w> 14
listra das</w> 14
almo f 14
carta z</w> 14
gat e.</w> 14
veri fica</w> 14
ces s 14
discus sion</w> 14
adver tising</w> 14
tack le</w> 14
envol vi 14
mem bro</w> 14
backpack .</w> 14
char ac 14
pesca dor</w> 14
goo ds</w> 14
recém- nas 14
hoop .</w> 14
contro l</w> 14
expres são</w> 14
nari z.</w> 14
rack et.</w> 14
shin ing</w> 14
curio sos</w> 14
vag ão</w> 14
trampoli m.</w> 14
inspecion a</w> 14
espi ando</w> 14
dig ital</w> 14
piqueni que</w> 14
piqueni que.</w> 14
objet o.</w> 14
Che erlead 14
pup py</w> 14
estud antes</w> 14
adverti sement</w> 14
red headed</w> 14
chama da</w> 14
ud indo</w> 14
airplan e</w> 14
hurd le.</w> 14
ombro .</w> 14
oppon ent</w> 14
divers ões.</w> 14
train ing</w> 14
mercadori as</w> 14
golf e.</w> 14
recei ving</w> 14
Wal mar 14
admir ing</w> 14
tool s</w> 14
201 2</w> 14
fir st</w> 14
wag on</w> 14
airpor t.</w> 14
aeropor to.</w> 14
cabeç a,</w> 14
merce aria.</w> 14
eth nic</w> 14
custo mers.</w> 14
hersel f</w> 14
interse ction.</w> 14
T- shirt</w> 14
entusi as 14
segun do</w> 14
baller ina</w> 14
prati cam</w> 14
artes an 14
reci pi 14
shopp ing.</w> 14
mod elo</w> 14
divertin do.</w> 14
infanti l</w> 14
by stand 14
enth usi 14
whil st</w> 14
tee th.</w> 14
Cau casi 14
cobbl estone</w> 14
trân s 14
maiori a</w> 14
a bri 13
a ches</w> 13
o x 13
o bra</w> 13
p ir 13
p le,</w> 13
i ca 13
i ca.</w> 13
i dade,</w> 13
l - 13
t ree 13
m ur 13
m ing 13
m ped</w> 13
m med</w> 13
m pet</w> 13
j am</w> 13
s ni 13
g en 13
g li 13
g ada.</w> 13
f ei 13
f air</w> 13
f are 13
f air.</w> 13
d us 13
d ados</w> 13
d ges</w> 13
v a,</w> 13
v as,</w> 13
R i 13
ê ,</w> 13
z i 13
N a</w> 13
ã .</w> 13
" ,</w> 13
" P 13
w as</w> 13
w ings</w> 13
ó bo 13
ó li 13
A t 13
S ur 13
k ing,</w> 13
P ro 13
B lue</w> 13
an el</w> 13
ar m 13
ar ca 13
ar ma.</w> 13
en ger</w> 13
co chil 13
er a</w> 13
re cu 13
re present 13
ca ç 13
ro das.</w> 13
it e 13
ma p</w> 13
ma cent 13
al tos</w> 13
st .</w> 13
st age,</w> 13
la mb 13
la va</w> 13
la macent 13
do - 13
do -se</w> 13
ri qui 13
lo tada.</w> 13
ent ering</w> 13
at tra 13
so p 13
so cial</w> 13
ch er 13
ch ers</w> 13
ch est</w> 13
et as.</w> 13
ic s</w> 13
par k,</w> 13
ad m 13
ad s</w> 13
to ol</w> 13
on g 13
il í 13
si mi 13
ver s</w> 13
ver ão.</w> 13
is mo</w> 13
me et 13
pla tes</w> 13
pla ces</w> 13
pla za.</w> 13
ol ímp 13
be be 13
li der 13
am e.</w> 13
de do</w> 13
de iro</w> 13
de ad</w> 13
we dd 13
we aving</w> 13
pesso a.</w> 13
di mly</w> 13
as as</w> 13
as pira 13
wal ls</w> 13
ti ar 13
ti gh 13
ti ca.</w> 13
fo i</w> 13
fo ur 13
ta in</w> 13
le y</w> 13
out ros.</w> 13
out stretched</w> 13
camis a.</w> 13
itt en</w> 13
gra du 13
for m</w> 13
ap pl 13
con for 13
con verse</w> 13
menin as,</w> 13
mo del 13
mo icano</w> 13
su p 13
bla ck.</w> 13
vi vas.</w> 13
wat ers</w> 13
mar cha</w> 13
fi ando</w> 13
no te 13
no se.</w> 13
cal m</w> 13
cal f</w> 13
jov em,</w> 13
te ch 13
te d.</w> 13
te la.</w> 13
te aching</w> 13
pi a</w> 13
pa to</w> 13
des cen 13
wa y,</w> 13
sho e.</w> 13
wor l 13
ss o</w> 13
row s</w> 13
sal tam</w> 13
mu da</w> 13
bran cas,</w> 13
ex cesso</w> 13
pass enger</w> 13
of ic 13
tri bal</w> 13
clo sed.</w> 13
sa iling</w> 13
cer âmica</w> 13
tu be</w> 13
reg ist 13
por tra 13
ven da.</w> 13
ven dem</w> 13
can eta</w> 13
liv ros.</w> 13
der by.</w> 13
cap ,</w> 13
cap tu 13
fil ling</w> 13
fil ho.</w> 13
obser ve</w> 13
che ck</w> 13
che cks</w> 13
band eiras.</w> 13
ban jo</w> 13
cost ura</w> 13
sun glasses,</w> 13
vo c 13
tent s</w> 13
mei a</w> 13
fri o</w> 13
prédi o,</w> 13
cre am.</w> 13
viol ão,</w> 13
ped ra,</w> 13
im ôni 13
sto ma 13
pen as</w> 13
vel as</w> 13
work ing.</w> 13
oth ers.</w> 13
stri pes</w> 13
spe ed</w> 13
com es</w> 13
min do.</w> 13
tru cks</w> 13
tru ques</w> 13
tru mpet</w> 13
pain ting.</w> 13
head band</w> 13
head phones.</w> 13
boo th</w> 13
montan ho 13
montan ha- 13
fen o.</w> 13
sol dando</w> 13
rox a,</w> 13
fis herman</w> 13
deit ados</w> 13
sweat er,</w> 13
chin ês</w> 13
chin elos</w> 13
slee p 13
Men inas</w> 13
cloth ing,</w> 13
stu dio.</w> 13
tele phone</w> 13
off - 13
costu ra.</w> 13
bor da</w> 13
óri os</w> 13
inter agindo</w> 13
stair way</w> 13
quad ra.</w> 13
walk ing,</w> 13
ke ep</w> 13
long as</w> 13
estacion ados</w> 13
vie w.</w> 13
sil hueta</w> 13
lea sh.</w> 13
bel t</w> 13
din ner.</w> 13
cra w 13
espor tes</w> 13
test a</w> 13
ey e 13
wel l.</w> 13
dru m 13
conser ta</w> 13
ale g 13
pilo tos</w> 13
veí culo.</w> 13
corre dor.</w> 13
ensolar ado</w> 13
cest a.</w> 13
she ep</w> 13
examin es</w> 13
rocho so</w> 13
vit óri 13
come ça</w> 13
perform ing.</w> 13
eng en 13
bur gun 13
descan sa</w> 13
cruz amento</w> 13
estran ge 13
shovel s</w> 13
son g</w> 13
photograph .</w> 13
photograph ed</w> 13
bul l 13
condu z</w> 13
gun .</w> 13
rain bow</w> 13
tá bu 13
bengal a.</w> 13
bb on</w> 13
ab óbo 13
medi ev 13
agach ada</w> 13
obstá culo</w> 13
obstá culos.</w> 13
door way.</w> 13
stop .</w> 13
fech ados.</w> 13
inclin ado</w> 13
ando - 13
ador ,</w> 13
sn ack 13
fra me.</w> 13
espir ra</w> 13
gor ro</w> 13
os amente</w> 13
contro le</w> 13
hospit al.</w> 13
trail er</w> 13
emerg ência</w> 13
monit or</w> 13
carnav al</w> 13
moder n</w> 13
objet os</w> 13
mist urando</w> 13
Multi ple</w> 13
Multi dão</w> 13
key board</w> 13
video game</w> 13
scaffol ding.</w> 13
via jando</w> 13
group .</w> 13
mochi la.</w> 13
prot est</w> 13
pret ty</w> 13
pave ment</w> 13
pave ment.</w> 13
barb er</w> 13
airplan e.</w> 13
leo par 13
fabri c.</w> 13
aconte cendo</w> 13
swor d</w> 13
vent i 13
Su b 13
custom ers</w> 13
dish es</w> 13
circu lar</w> 13
orel has</w> 13
pood le</w> 13
pedal ando</w> 13
Sk at 13
cachorrin hos</w> 13
bez er 13
microfon e,</w> 13
materi al.</w> 13
tut u</w> 13
orqu estra</w> 13
bailar ina</w> 13
bande ja</w> 13
hamb úr 13
consist ing</w> 13
calçad ão</w> 13
board walk</w> 13
bate dor</w> 13
crí quete</w> 13
Stu dents</w> 13
paras a 13
despe jando</w> 13
choco late</w> 13
vei s.</w> 13
rick sha 13
brow sing</w> 13
crick et</w> 13
gestu res</w> 13
distri bu 13
passare la.</w> 13
close up</w> 13
platé ia.</w> 13
líqui do</w> 13
apla u 13
fav or 13
Rol ler 13
assent os</w> 13
traff ic.</w> 13
infer ior</w> 13
retri e 13
sni ff 13
riqui x 13
simi lar</w> 13
montanha- russ 13
b are</w> 12
b by</w> 12
b iting</w> 12
b ambo 12
a x 12
a p</w> 12
a ble</w> 12
r y.</w> 12
c ent</w> 12
o ta</w> 12
o vos</w> 12
- tre 12
p as</w> 12
p et.</w> 12
i f</w> 12
l itt 12
t et 12
t éc 12
e mo 12
e ar.</w> 12
e dade</w> 12
e labora 12
s so 12
s ci 12
s ack</w> 12
s itu 12
s lic 12
n é 12
n in 12
n ess.</w> 12
d -h 12
h y 12
h ador</w> 12
h adas</w> 12
á s</w> 12
z en</w> 12
z agu 12
N o</w> 12
" S 12
w ns</w> 12
ó .</w> 12
0 0 12
S he 12
S ki 12
k ite</w> 12
k er.</w> 12
k en.</w> 12
P lay 12
é is</w> 12
C ola</w> 12
ô nico</w> 12
G re 12
H i 12
H e 12
T im 12
E st 12
W a 12
L a 12
in doors.</w> 12
ar ru 12
ar ame</w> 12
co ro 12
ho tel</w> 12
re mo</w> 12
ca ção</w> 12
ca che 12
ma ti 12
th in 12
est ra 12
al lo 12
al ley 12
st on</w> 12
st are</w> 12
st am</w> 12
el á 12
ri em</w> 12
ri er</w> 12
at ten 12
at tending</w> 12
bo s 12
bo ys,</w> 12
so ,</w> 12
et i 12
ic s.</w> 12
par ap 12
or der</w> 12
or s,</w> 12
se em</w> 12
se con 12
se min 12
pe di 12
cam in 12
ru bs</w> 12
po ço</w> 12
ver ão</w> 12
ol ,</w> 12
be en</w> 12
be ani 12
be ge,</w> 12
li g 12
am i</w> 12
de ck.</w> 12
bal c 12
car ros 12
ti co.</w> 12
ti pos</w> 12
per ten 12
le af 12
vest es</w> 12
for mal 12
for ward</w> 12
menin a,</w> 12
mo s.</w> 12
mo st</w> 12
su por 12
stand ing.</w> 12
res pon 12
ei ght</w> 12
gar agem</w> 12
jog ada</w> 12
fi os</w> 12
ag as 12
ag es.</w> 12
caminh ava</w> 12
te al</w> 12
pi er.</w> 12
pi pe.</w> 12
pi pa</w> 12
bol ha</w> 12
pa th 12
pa -tre 12
des a 12
des cer</w> 12
des ign</w> 12
bar ras</w> 12
run .</w> 12
stru gg 12
man h 12
boar der</w> 12
amar rando</w> 12
he art</w> 12
jump ing.</w> 12
pos icion 12
back dro 12
cab o</w> 12
pu la 12
pu bl 12
ce u</w> 12
sa il 12
cer imôni 12
reg i 12
tor re</w> 12
bas s</w> 12
col her</w> 12
tre pa-tre 12
ber muda</w> 12
can al</w> 12
list ens</w> 12
cur b.</w> 12
cap e</w> 12
hand ing</w> 12
fal ls</w> 12
cli ente</w> 12
lin da</w> 12
ati c</w> 12
vo s.</w> 12
gi e</w> 12
gi ve</w> 12
build ing,</w> 12
camer a 12
bicyc les.</w> 12
woo d 12
woo ds</w> 12
cre me</w> 12
cre ati 12
Se at 12
dad as.</w> 12
dis h</w> 12
observ ing</w> 12
sto ve.</w> 12
mã o,</w> 12
toge ther,</w> 12
blon d-h 12
corri mão.</w> 12
rol ante</w> 12
rol ante.</w> 12
oth er,</w> 12
com m 12
esc r 12
escu ra.</w> 12
pain t 12
head ing</w> 12
ves ,</w> 12
bat er</w> 12
gg y</w> 12
ha y</w> 12
dor mindo.</w> 12
sig ns.</w> 12
vermel hos,</w> 12
baix a</w> 12
sel y</w> 12
rox as</w> 12
movi e</w> 12
colori dos.</w> 12
sand wich</w> 12
cover s</w> 12
swim mers</w> 12
beise bol,</w> 12
ste el</w> 12
má scar 12
fam ili 12
post er.</w> 12
ther ed</w> 12
sli ghtly</w> 12
cho p 12
sorri dentes</w> 12
esp ada</w> 12
road ,</w> 12
costu mes.</w> 12
bor do</w> 12
guitar ra.</w> 12
guitar ist</w> 12
over weight</w> 12
cozinh a,</w> 12
cast elo</w> 12
pux am</w> 12
gal hos</w> 12
amarel os.</w> 12
water mel 12
reuni dos</w> 12
pan or 12
ke ys</w> 12
limp ar</w> 12
ras as</w> 12
aber to</w> 12
hoo d.</w> 12
fantasi ado</w> 12
esqui adores</w> 12
passe ar</w> 12
tril ho.</w> 12
box er</w> 12
smo ke</w> 12
gre en 12
vis iting</w> 12
clar in 12
lif t.</w> 12
lif ted</w> 12
cole ga</w> 12
cole ira.</w> 12
roch as.</w> 12
Bo ys</w> 12
dru m.</w> 12
tou ches</w> 12
diver tem</w> 12
grav et 12
team ma 12
particip a</w> 12
corre r</w> 12
wi fe</w> 12
desen hos</w> 12
cois a</w> 12
vari edade</w> 12
shoul ders.</w> 12
under water</w> 12
fire man</w> 12
fire fighters</w> 12
equ ilí 12
countr y 12
suspen s 12
dou gh</w> 12
peix es.</w> 12
vegeta ble</w> 12
penhas co.</w> 12
tatu ado</w> 12
marci al</w> 12
Co w 12
esten dendo</w> 12
abraç am</w> 12
trampo line</w> 12
gogg les.</w> 12
cruz am</w> 12
african os</w> 12
jar din 12
cr ying.</w> 12
escala tor.</w> 12
photograph s</w> 12
spo t 12
spo tted</w> 12
dun e.</w> 12
protest ing</w> 12
past .</w> 12
padd le</w> 12
grel hando</w> 12
kaya ks</w> 12
complet e</w> 12
arboriz ada</w> 12
tar de</w> 12
Garo ta</w> 12
tun nel</w> 12
gat es</w> 12
swee ps</w> 12
cand les</w> 12
stop s</w> 12
flutu a</w> 12
mess y</w> 12
fra me</w> 12
ferrament a</w> 12
clas se</w> 12
Ar ti 12
Mi ami</w> 12
afa stando</w> 12
chor ando.</w> 12
pati o.</w> 12
ami gos.</w> 12
balcon y.</w> 12
girl 's</w> 12
execut ando</w> 12
horse back</w> 12
curio sos.</w> 12
excit ed</w> 12
paviment ada.</w> 12
El mo</w> 12
mater ial</w> 12
inspec ts</w> 12
hot el.</w> 12
bever age</w> 12
muse um.</w> 12
key board.</w> 12
flori do</w> 12
engra ç 12
podi um.</w> 12
guer ra</w> 12
cuid ado 12
smal l,</w> 12
kni t</w> 12
enro lado</w> 12
repair s</w> 12
fabri c</w> 12
restaurant e,</w> 12
animal s</w> 12
ambul ante</w> 12
deix ando</w> 12
stor y</w> 12
telef ôni 12
stil l</w> 12
carto la</w> 12
fof o</w> 12
mono ciclo</w> 12
patter ned</w> 12
vasso ura</w> 12
atlet as</w> 12
cascal ho.</w> 12
fuma ça</w> 12
ginási o.</w> 12
papé is</w> 12
ench endo</w> 12
conven i 12
lâ mp 12
escav adeira</w> 12
rápi do</w> 12
elef ante</w> 12
meio- fio</w> 12
comemor ando</w> 12
areno sa.</w> 12
bad min 12
esgri ma</w> 12
bair ro</w> 12
sac udindo</w> 12
avel mente</w> 12
villa ge</w> 12
mac hos</w> 12
thumb s</w> 12
ladd er.</w> 12
toss ing</w> 12
merch and 12
gymna stic 12
EU A</w> 12
espa ço</w> 12
guinda ste</w> 12
Close up</w> 12
hocke y.</w> 12
irri g 12
vio lon 12
Soon ers</w> 12
alegre mente</w> 12
Cheerlead ers</w> 12
Caucasi an</w> 12
wedd ing.</w> 12
appl ying</w> 12
sup por 12
burgun dy</w> 12
sci ence</w> 12
Tim es</w> 12
beani e</w> 12
equilí bri 12
b es</w> 11
a ba 11
r al 11
r ally</w> 11
c into</w> 11
o ito</w> 11
o ise</w> 11
p ó</w> 11
p ing 11
p ack</w> 11
i oga</w> 11
l ê 11
t wo 11
t hou 11
m ing.</w> 11
m ina</w> 11
m uro</w> 11
j eira.</w> 11
e es</w> 11
s '</w> 11
s es 11
n es 11
n ado</w> 11
n ica</w> 11
n ail</w> 11
u mas</w> 11
f an</w> 11
f ar</w> 11
f ême 11
d res</w> 11
h am</w> 11
h isp 11
h avai 11
R ap 11
ê mi 11
á re 11
í veis</w> 11
N i 11
N u 11
N Y 11
w ar</w> 11
w ard.</w> 11
S ho 11
S qu 11
S tat 11
S cho 11
D is 11
P ho 11
P ai</w> 11
M a 11
C u 11
C yc 11
G ra 11
B al 11
B rit 11
H ol 11
2 .</w> 11
E xi 11
y ar 11
y oga</w> 11
in ju 11
in ício</w> 11
an un 11
an ge 11
an o,</w> 11
ar ri 11
ar es.</w> 11
ar y.</w> 11
ar mas</w> 11
ar ame.</w> 11
en x 11
en s,</w> 11
co w.</w> 11
ca ver 11
ca ss 11
ca va</w> 11
ro u</w> 11
ro tina</w> 11
it ura</w> 11
ma le,</w> 11
al h 11
st one.</w> 11
st range</w> 11
la bel 11
do t</w> 11
do g,</w> 11
ra v 11
el i 11
ri an</w> 11
un os</w> 11
un us 11
lo ad 11
lo jas</w> 11
ir mão</w> 11
at ure</w> 11
bo u 11
bo la,</w> 11
bo neca</w> 11
ch ristmas</w> 11
et er 11
ic k</w> 11
or ,</w> 11
wit h 11
ur n 11
ur s</w> 11
ur as</w> 11
to l 11
to bo 11
to p,</w> 11
se ira</w> 11
se mi 11
pe ças</w> 11
cam ente</w> 11
cam ping</w> 11
ru í 11
ru st 11
ru iv 11
ac e.</w> 11
ac compani 11
si on.</w> 11
po ck 11
po or</w> 11
po usa</w> 11
me as 11
pla cing</w> 11
pla ced</w> 11
be ar</w> 11
am ,</w> 11
op ens</w> 11
bal de.</w> 11
di ver</w> 11
di ves</w> 11
as fal 11
wal ls.</w> 11
car tas</w> 11
car pet.</w> 11
ti es</w> 11
ti gel 11
ti mate</w> 11
anç a.</w> 11
inh as.</w> 11
play fully</w> 11
sent adas,</w> 11
vest .</w> 11
pre tas.</w> 11
gra y 11
for mais</w> 11
for ma.</w> 11
cor tador</w> 11
con he 11
ant s</w> 11
su bi 11
su pp 11
su jeira.</w> 11
gir a</w> 11
gir ando</w> 11
fi ght.</w> 11
cu lar</w> 11
ag g 11
ag itando</w> 11
caminh ões</w> 11
da mas</w> 11
ou ro.</w> 11
te cla 11
te cido.</w> 11
sho re 11
sho ps</w> 11
bar co,</w> 11
pra ying</w> 11
pra tele 11
mi d- 11
pul ando.</w> 11
mal l.</w> 11
man uten 11
amar rados</w> 11
ment s</w> 11
hi p 11
ári a.</w> 11
fe ,</w> 11
fe mal 11
ser ves</w> 11
skat er</w> 11
skat ers</w> 11
bri gando</w> 11
bri gam</w> 11
bri ef 11
mes as.</w> 11
ex tra 11
tal mente</w> 11
pu ck</w> 11
unifor ms.</w> 11
sur face</w> 11
sur ger 11
multi ple</w> 11
multi colorida</w> 11
tu be.</w> 11
rin k.</w> 11
col cho 11
ven dors</w> 11
der ra 11
cap s</w> 11
che er 11
che ga</w> 11
che gada</w> 11
fac il 11
some one.</w> 11
smil e.</w> 11
dur ando</w> 11
lin k</w> 11
bei ja</w> 11
micro phone,</w> 11
beb em</w> 11
fri o.</w> 11
constru í 11
viol in 11
ped indo</w> 11
observ es</w> 11
gam es.</w> 11
pen durando</w> 11
dire ito</w> 11
capac et 11
cober ta.</w> 11
cober tor.</w> 11
var re</w> 11
head s.</w> 11
abo ve.</w> 11
fla uta</w> 11
bat h</w> 11
shirt ed</w> 11
ha y.</w> 11
ha bili 11
rox a.</w> 11
swim ming.</w> 11
fru its</w> 11
coo k</w> 11
motor bike</w> 11
em po 11
em bal 11
moviment os</w> 11
Al unos</w> 11
post .</w> 11
cho que</w> 11
ament o,</w> 11
ament os.</w> 11
cut .</w> 11
hu man 11
off icial</w> 11
rost os</w> 11
fu ra 11
umbrel la,</w> 11
guarda-chu vas.</w> 11
fli ps</w> 11
pil lo 11
musi cal.</w> 11
bow ls</w> 11
madei ra,</w> 11
escal ando.</w> 11
brilh antes.</w> 11
quad ro- 11
even ing.</w> 11
peda ços</w> 11
fish ing.</w> 11
mai s.</w> 11
aju stando</w> 11
pran chas</w> 11
scar ves</w> 11
box e 11
fol i 11
fol ded</w> 11
vis ão.</w> 11
poin t</w> 11
oper a</w> 11
lif ts</w> 11
new ly</w> 11
paper s.</w> 11
d' s.</w> 11
cir cul 11
spea k</w> 11
skir t,</w> 11
ballo on.</w> 11
ballo ons.</w> 11
persegu em</w> 11
brea k.</w> 11
tou rists</w> 11
tou rist</w> 11
deco rado</w> 11
mascul ina</w> 11
mascul inos</w> 11
wheel ie</w> 11
prin ted</w> 11
degra u</w> 11
plant a</w> 11
plant ing</w> 11
practic es</w> 11
tin y</w> 11
hap p 11
para que 11
buck ets</w> 11
meia- calça</w> 11
bott les</w> 11
aqu es</w> 11
fire men</w> 11
fire fighter</w> 11
land ing</w> 11
come mo 11
wrest le</w> 11
wrest ler</w> 11
exi be</w> 11
pó dio.</w> 11
bur ro</w> 11
biqu í 11
vaz ia</w> 11
african o</w> 11
esporti vas</w> 11
escorreg ador.</w> 11
clu b</w> 11
escala tor</w> 11
hair cut</w> 11
lapto ps.</w> 11
protest ando</w> 11
hon e.</w> 11
padd les</w> 11
compan heiro</w> 11
compan heiros</w> 11
scre am 11
roller skating</w> 11
imag ens</w> 11
lan e</w> 11
almo ç 11
almo çando</w> 11
cand y</w> 11
laun dro 11
pne us</w> 11
org ul 11
fech ados</w> 11
pet ró 11
enfrent ando</w> 11
nev ado.</w> 11
tack ling</w> 11
bath room</w> 11
públ ica</w> 11
sn or 11
clas si 11
discut em</w> 11
cadei ra,</w> 11
recor d</w> 11
som br 11
Mo hawk</w> 11
hoop s</w> 11
mast ig 11
exter na</w> 11
Lon dres</w> 11
chal k 11
chal k</w> 11
malabaris mo</w> 11
emerg ency</w> 11
wil d</w> 11
excit e 11
follo ws</w> 11
professo ra</w> 11
paviment ada</w> 11
exerc íci 11
exerc ise</w> 11
confer ence</w> 11
pesco ço.</w> 11
sprink ler</w> 11
long-slee ve</w> 11
loun ge</w> 11
prate ado</w> 11
muse u.</w> 11
sy n 11
vin ta 11
Pol ice</w> 11
Pol iciais</w> 11
eletr ônico</w> 11
á- la.</w> 11
pudd le.</w> 11
agar ra</w> 11
pret as,</w> 11
repair ing</w> 11
leo t 11
visi on.</w> 11
animal s.</w> 11
exibi ção</w> 11
fog ão.</w> 11
finish ed</w> 11
acamp amento</w> 11
gai vo 11
ens ino</w> 11
dog s,</w> 11
dog 's</w> 11
landscap e</w> 11
landscap e.</w> 11
invol ved</w> 11
rapi damente</w> 11
atti re.</w> 11
foc inho</w> 11
travel ing</w> 11
motoriz ed</w> 11
turqu oise</w> 11
audit ori 11
neckla ce</w> 11
natu re 11
adjust ing</w> 11
concent ra 11
dust y</w> 11
sorrident e,</w> 11
hall way.</w> 11
alcanç ando</w> 11
cran e</w> 11
mens agens</w> 11
casqu inha</w> 11
mane u 11
hill side.</w> 11
neighbor hood.</w> 11
liqui d</w> 11
joel hos</w> 11
devic e.</w> 11
incêndi o</w> 11
papel ão</w> 11
lavand eria.</w> 11
rodo vi 11
shad es</w> 11
care fully</w> 11
legg ings</w> 11
march ando</w> 11
Fe male</w> 11
focu sed</w> 11
anivers ário</w> 11
borbo leta</w> 11
gestic ula</w> 11
intent ly</w> 11
apren dendo</w> 11
maiô s</w> 11
Cas al</w> 11
ensin ando</w> 11
lear ning</w> 11
recém-cas ado</w> 11
protet ores</w> 11
comerci al.</w> 11
aguard am</w> 11
cree k.</w> 11
snea kers</w> 11
tige la.</w> 11
cachorro- quente</w> 11
pig tails</w> 11
prov avelmente</w> 11
cine gra 11
recipi ente</w> 11
bystand ers</w> 11
dus k.</w> 11
engen ho 11
parasa iling</w> 11
cuidado samente</w> 11
badmin ton</w> 11
Exi stem</w> 11
tigel as</w> 11
petró le 11
b m 10
b ite</w> 10
a z</w> 10
a gra 10
a fun 10
a colcho 10
r anc 10
c are</w> 10
c anto</w> 10
c lá 10
o w 10
o velhas</w> 10
- American</w> 10
p y 10
p is</w> 10
p le 10
p al</w> 10
p ter 10
i do.</w> 10
i ve</w> 10
i ro.</w> 10
i Po 10
l it 10
t i</w> 10
t is 10
t ing 10
m it 10
m s,</w> 10
m ming</w> 10
m bolo</w> 10
e mer 10
e dge.</w> 10
e uro 10
e astern</w> 10
s "</w> 10
s an 10
s cor 10
s que 10
s inc 10
s éri 10
n u</w> 10
g ul 10
g et.</w> 10
g alg 10
u k 10
x o.</w> 10
f e.</w> 10
f olha</w> 10
f arm</w> 10
f éri 10
d á 10
d ência</w> 10
R u 10
V e 10
V ol 10
í adas</w> 10
í deres</w> 10
w e</w> 10
w er.</w> 10
ó i</w> 10
ó pter 10
A do 10
A frican 10
F a 10
F am 10
S al 10
S ão</w> 10
S t.</w> 10
S pec 10
k es 10
k er 10
M em 10
C ou 10
C av 10
ô ,</w> 10
B ra 10
B icyc 10
H a 10
H allo 10
T i 10
U S</w> 10
W i 10
I s 10
I t</w> 10
L íderes</w> 10
! "</w> 10
O ba 10
& amp;</w> 10
in ando</w> 10
in s.</w> 10
in side.</w> 10
an jo</w> 10
ar ch 10
en 's</w> 10
en contra 10
co p 10
co re 10
co ne 10
co po.</w> 10
re iro</w> 10
ca use</w> 10
it ch 10
it e,</w> 10
est ra.</w> 10
est ar.</w> 10
est ab 10
al co 10
al dei 10
st er 10
st ir 10
la den</w> 10
la mp</w> 10
ra quete.</w> 10
ri l 10
ri bbon</w> 10
lo mer 10
lo ad</w> 10
hom e 10
hom eless</w> 10
ent ly</w> 10
ent es,</w> 10
qu eira.</w> 10
qu eiros</w> 10
qu ick 10
at as</w> 10
at ro.</w> 10
at irando</w> 10
bo at,</w> 10
bo y's</w> 10
so r</w> 10
so pra 10
ch ic 10
ch am 10
ic ópter 10
to ma</w> 10
to ns</w> 10
to talmente</w> 10
pe d.</w> 10
pe ito.</w> 10
cam elo</w> 10
cam el</w> 10
il ing.</w> 10
wo men's</w> 10
ac es 10
si mp 10
po ca</w> 10
ut ing</w> 10
me mo 10
me at.</w> 10
pla za</w> 10
be ben 10
be am.</w> 10
li ga</w> 10
am o 10
am id 10
op ing</w> 10
de dos.</w> 10
gu e 10
gu ia</w> 10
gu lose 10
hor n</w> 10
as p 10
wal l,</w> 10
car tas.</w> 10
car ne.</w> 10
car ona</w> 10
car ica 10
per .</w> 10
le m 10
inh ando</w> 10
inh a,</w> 10
play ers,</w> 10
bl ur 10
pre tos.</w> 10
us a.</w> 10
ing ed</w> 10
cor das.</w> 10
con d 10
con di 10
con ge 10
con tor 10
menin os,</w> 10
mo o 10
mo bil 10
tra sh 10
tra ck 10
vi ga</w> 10
vi vo</w> 10
vi sion</w> 10
loo m.</w> 10
gar age</w> 10
gar den</w> 10
jog ado</w> 10
lar ger</w> 10
bu qu 10
bu ff 10
fi a.</w> 10
fi car</w> 10
ag rí 10
ag lomer 10
caminh ando,</w> 10
te ens</w> 10
te cendo</w> 10
pa u.</w> 10
her ,</w> 10
des ,</w> 10
des mai 10
wa shes</w> 10
bro ther</w> 10
bar s.</w> 10
bar ten 10
pra ça.</w> 10
mi c</w> 10
ter es</w> 10
ter s.</w> 10
pin ata</w> 10
pro c 10
ob ras.</w> 10
stre am.</w> 10
pr êmi 10
amar rado</w> 10
ment s.</w> 10
ment os.</w> 10
hi ding</w> 10
fe atu 10
flo ats</w> 10
ser vice</w> 10
back ,</w> 10
trabalh ando.</w> 10
mon tada</w> 10
tal king,</w> 10
ce iling</w> 10
snow ,</w> 10
snow suit</w> 10
unifor m,</w> 10
tri po 10
tri ciclo</w> 10
clo sely</w> 10
pal av 10
pal mas</w> 10
mil ho</w> 10
sa b 10
sa gu 10
multi colorido</w> 10
cer ,</w> 10
tu b.</w> 10
por ch.</w> 10
por tá 10
rin do,</w> 10
tor ne 10
fun do,</w> 10
pic k 10
pic ks</w> 10
pequen as,</w> 10
can s 10
can eca</w> 10
cur tos</w> 10
convers am.</w> 10
met al 10
cap ô</w> 10
hand ,</w> 10
che d.</w> 10
che gar</w> 10
velh a.</w> 10
caval o,</w> 10
tan do.</w> 10
perfor m.</w> 10
sc ri 10
lin das</w> 10
mei o.</w> 10
gi ft</w> 10
cou ples</w> 10
cre ating</w> 10
dis playing</w> 10
dis co.</w> 10
dis curso.</w> 10
observ ando.</w> 10
sto ri 10
sto ve</w> 10
ga thers</w> 10
ki e</w> 10
eboar der</w> 10
bik e,</w> 10
min iv 10
var a.</w> 10
tru que.</w> 10
surf s</w> 10
pis ando</w> 10
vol un 10
vol tando</w> 10
gg ed</w> 10
dei ra.</w> 10
ani c</w> 10
fen o</w> 10
lut a.</w> 10
sing le</w> 10
blo co</w> 10
base ,</w> 10
tat ors</w> 10
apresent ando.</w> 10
cai u</w> 10
coo ks</w> 10
bot ões</w> 10
dri ve</w> 10
dri ve 10
segu rado</w> 10
ste pping</w> 10
moviment ado.</w> 10
post o</w> 10
cho pping</w> 10
ôni bus,</w> 10
motorcyc lists</w> 10
neg ras</w> 10
sof a</w> 10
cour ty 10
cow boy,</w> 10
af ter 10
pil has</w> 10
musi cais</w> 10
inter est 10
gal ler 10
stair case</w> 10
ski ers</w> 10
reuni ão.</w> 10
pan ish</w> 10
mor dendo</w> 10
walk ed</w> 10
dra wn</w> 10
watch ed</w> 10
ras as.</w> 10
nad ador</w> 10
nad ando.</w> 10
ref res 10
xadre z,</w> 10
scar f 10
esqui .</w> 10
tril ho</w> 10
piscin a,</w> 10
box es.</w> 10
sin k</w> 10
tran spar 10
frien d.</w> 10
todd lers</w> 10
chair ,</w> 10
pit ch</w> 10
pendu rados</w> 10
roch a,</w> 10
persegu ido</w> 10
Bo b</w> 10
tou ch</w> 10
grav ando</w> 10
nu vem</w> 10
lav ar</w> 10
barra ca.</w> 10
plant ando</w> 10
inver no,</w> 10
ale gri 10
childr en's</w> 10
va ca.</w> 10
chi que</w> 10
scen ery</w> 10
har d 10
har mon 10
meia- idade,</w> 10
she ep.</w> 10
she pherd</w> 10
examin am</w> 10
present e.</w> 10
hal l.</w> 10
númer os</w> 10
equ est 10
whit e- 10
forma ção</w> 10
ilumin ada</w> 10
faix as</w> 10
scho ol 10
scho ol.</w> 10
perform ers</w> 10
Co ca- 10
don key</w> 10
estu dando</w> 10
pé s.</w> 10
bur ning</w> 10
but ter 10
but ton 10
amig o.</w> 10
positi on.</w> 10
athlet es</w> 10
flut e</w> 10
anima do</w> 10
clu be</w> 10
escala m</w> 10
black -haired</w> 10
barbe ando</w> 10
barbe cue</w> 10
hair cut.</w> 10
suit s,</w> 10
protest o</w> 10
churras queira.</w> 10
bombei ros.</w> 10
hon ete.</w> 10
alun o</w> 10
urban o.</w> 10
bb ing</w> 10
lí der</w> 10
low s.</w> 10
molh ada</w> 10
molh ada.</w> 10
transpor t 10
vitrin e.</w> 10
crou ched</w> 10
ligh ted</w> 10
celebra te</w> 10
desfru tam</w> 10
bare foo 10
objec ts</w> 10
casu ally</w> 10
lix eira</w> 10
próxi mas</w> 10
sn ack</w> 10
barre ira</w> 10
barre l.</w> 10
down ,</w> 10
down town</w> 10
goo ds.</w> 10
chef 's</w> 10
cadei ras.</w> 10
tú nicas</w> 10
jugg les</w> 10
elev ador</w> 10
apoi ado</w> 10
apoi ada</w> 10
afa sta</w> 10
pron ta</w> 10
stud ying</w> 10
pun k</w> 10
mast ro</w> 10
exter na.</w> 10
lá bi 10
lá pis</w> 10
lun ch.</w> 10
fur ry</w> 10
telesco pe.</w> 10
inflá vel.</w> 10
wil l</w> 10
Ess es</w> 10
contain er</w> 10
spee ch</w> 10
spee ch.</w> 10
nave ga</w> 10
loca liz 10
somb ra.</w> 10
mó veis</w> 10
El derly</w> 10
confer ência.</w> 10
bast ões</w> 10
tún el.</w> 10
Be arded</w> 10
mist ura</w> 10
íngre me.</w> 10
scaffol ding</w> 10
compart ilh 10
gru po.</w> 10
chama do</w> 10
decorati ve</w> 10
eg gs</w> 10
ston es.</w> 10
entr ance</w> 10
acti vit 10
visi ble</w> 10
contra p 10
custom er</w> 10
comple to</w> 10
refriger ante</w> 10
fog ão</w> 10
night time</w> 10
finish ing</w> 10
rout ine</w> 10
admir ando</w> 10
tool s.</w> 10
pood les</w> 10
monu mento</w> 10
invol ving</w> 10
mergulh ador</w> 10
wra p</w> 10
cascal ho</w> 10
vazi o.</w> 10
conduz indo</w> 10
rollerbla ding</w> 10
hall way</w> 10
víde o</w> 10
víde o.</w> 10
tw ir 10
entreg a</w> 10
soci aliz 10
ascen dência</w> 10
jewel ry</w> 10
mani fest 10
eleph ant</w> 10
sanduí che</w> 10
sinu ca.</w> 10
cirurgi a.</w> 10
ous ly</w> 10
pent e 10
espre gui 10
cora ção</w> 10
depart ment</w> 10
pier cing</w> 10
exhi b 10
começ ar</w> 10
eletrôni co.</w> 10
ladril hos</w> 10
ativi dade</w> 10
borra cha</w> 10
quadri ciclo</w> 10
silhou ette</w> 10
realiz am</w> 10
iro n</w> 10
velo cidade</w> 10
bloo d</w> 10
unicyc le</w> 10
Pedest rians</w> 10
collar ed</w> 10
industri al</w> 10
bis co 10
aut um 10
passer s 10
bill board</w> 10
ling eri 10
sí mbolo</w> 10
ump ire</w> 10
Run ners</w> 10
who m</w> 10
Mil it 10
engin e</w> 10
topl ess</w> 10
cons ul 10
eira mente</w> 10
cumpri ment 10
pump k 10
airbor ne</w> 10
pony tail</w> 10
Walmar t.</w> 10
recu per 10
aspira dor</w> 10
voc ê</w> 10
bezer ro</w> 10
eti quet 10
lig eiramente</w> 10
balc ão.</w> 10
agas al 10
Seat tle</w> 10
Cow boy</w> 10
lê em</w> 10
fême a</w> 10
Rap az</w> 10
semi - 10
gray -haired</w> 10
fura deira</w> 10
sinc roni 10
galg os</w> 10
African -American</w> 10
Spec tators</w> 10
Mem bros</w> 10
Cav al 10
chic ken</w> 10
amid st</w> 10
barten der</w> 10
a de</w> 9
a ço</w> 9
r ão</w> 9
o p</w> 9
o gra 9
o sa</w> 9
o so</w> 9
p az 9
p ão.</w> 9
p py</w> 9
i cop 9
l inhas</w> 9
l y- 9
t ul 9
t ro</w> 9
t rou 9
t iro</w> 9
t amp 9
t il.</w> 9
m itt 9
m bling</w> 9
e ag 9
e ds</w> 9
e ven</w> 9
s am 9
s as.</w> 9
s pon 9
s uti 9
s cient 9
n on</w> 9
n ic 9
g as.</w> 9
g ico</w> 9
x is</w> 9
f air 9
f ati 9
f ici 9
f eira.</w> 9
d il 9
v ela</w> 9
v ele 9
v amente</w> 9
h all</w> 9
V .</w> 9
V ari 9
í s 9
N ati 9
N esta</w> 9
ã es</w> 9
w ares</w> 9
1 0</w> 9
S w 9
S no 9
S mil 9
S tar 9
k art</w> 9
P at 9
P are 9
é u</w> 9
M in 9
M ex 9
C la 9
C ic 9
C ol 9
G r 9
G o 9
B and</w> 9
H u 9
T en 9
T em</w> 9
E ight</w> 9
E astern</w> 9
y ou 9
W el 9
W at 9
' .</w> 9
L at 9
J e 9
J en 9
J ap 9
J ack 9
K o 9
O ito</w> 9
Á si 9
in a,</w> 9
an s.</w> 9
an si 9
ar my</w> 9
en la 9
en ed</w> 9
en fia</w> 9
en feit 9
en fiando</w> 9
co li 9
co ver</w> 9
co car</w> 9
co moti 9
ho li 9
re ve 9
re cost 9
re ally</w> 9
re batendo</w> 9
re creati 9
ca ma 9
ca da.</w> 9
ca der 9
ca kes</w> 9
ca das.</w> 9
it os.</w> 9
it ure</w> 9
it ens.</w> 9
th an</w> 9
est ante</w> 9
est eira</w> 9
al t 9
al tas</w> 9
al ém</w> 9
al to- 9
st ro</w> 9
st ers</w> 9
st ra</w> 9
do ca.</w> 9
ra do.</w> 9
ra ce,</w> 9
ri ce</w> 9
ri o,</w> 9
un d 9
lo r</w> 9
lo na</w> 9
lo go 9
lo g.</w> 9
lo cais</w> 9
lo jas.</w> 9
lo comoti 9
qu il 9
at uring</w> 9
at ely</w> 9
bo .</w> 9
bo ina</w> 9
bo ats.</w> 9
so da</w> 9
so ns</w> 9
ch ado</w> 9
ch ess</w> 9
ch atting</w> 9
ch roni 9
ic ,</w> 9
or esc 9
ad d 9
ad eiras</w> 9
ur .</w> 9
to co</w> 9
to oth 9
to ur</w> 9
se a.</w> 9
se ag 9
se at.</w> 9
se ats.</w> 9
pe go</w> 9
cam po,</w> 9
ru j 9
il lumin 9
ac e 9
si del 9
po t.</w> 9
po ça.</w> 9
po dem</w> 9
po ol,</w> 9
ut s.</w> 9
me ch 9
me ira</w> 9
me câ 9
br it 9
pla ca.</w> 9
be d 9
be ar 9
be am</w> 9
sh ar 9
de cor 9
de d.</w> 9
de do.</w> 9
men or</w> 9
bal let</w> 9
car ts</w> 9
car pet</w> 9
ne ck.</w> 9
ti e,</w> 9
ta - 9
ta to</w> 9
ta ça</w> 9
ta dores</w> 9
ta ken.</w> 9
per a 9
per son.</w> 9
out ro,</w> 9
play ing.</w> 9
bl es</w> 9
bl us 9
bl ish 9
sent ada.</w> 9
sent adas.</w> 9
gra ve 9
gra bs</w> 9
gra bbing</w> 9
us ,</w> 9
for no</w> 9
for ça</w> 9
cor n 9
cor pul 9
ci l</w> 9
ci dos</w> 9
ci dent 9
menin a.</w> 9
ant emente</w> 9
mo p</w> 9
mo ped</w> 9
fro zen</w> 9
tra y</w> 9
res or 9
res pe 9
vi br 9
vi gi 9
mar ca</w> 9
bu .</w> 9
bu f 9
fi stas</w> 9
olh o</w> 9
olh ando.</w> 9
branc h</w> 9
caminh ada.</w> 9
no iv 9
fr anc 9
da d</w> 9
bi es</w> 9
bi cho</w> 9
te e</w> 9
te a</w> 9
te atro</w> 9
pi stas</w> 9
ran ge.</w> 9
bol sas</w> 9
pa is</w> 9
ju mped</w> 9
mer ing</w> 9
wa ys.</w> 9
bro om</w> 9
bar s</w> 9
comp ram</w> 9
ter no.</w> 9
ter rain.</w> 9
ter rier</w> 9
corr ente</w> 9
pin tor</w> 9
pin k,</w> 9
pin tadas</w> 9
cas t</w> 9
cas ais</w> 9
man ob 9
man chas</w> 9
uni que</w> 9
colo cam</w> 9
pr ing</w> 9
ment e.</w> 9
fe aturing</w> 9
pos t</w> 9
back yard</w> 9
tur n.</w> 9
pass agem</w> 9
av es</w> 9
marro ns.</w> 9
ck er</w> 9
ck s,</w> 9
tal vez</w> 9
sor ting</w> 9
ce iling.</w> 9
om s</w> 9
snow shoes</w> 9
unifor ms,</w> 9
tri c 9
pal e</w> 9
sa wing</w> 9
sa w.</w> 9
tu g 9
tu x 9
tu bos</w> 9
ven do.</w> 9
hin d</w> 9
tre ad 9
can h 9
list rada.</w> 9
cur ly 9
convers ando,</w> 9
cap ped</w> 9
hand le</w> 9
che er</w> 9
che wing</w> 9
fac i 9
band eira.</w> 9
fal ar</w> 9
fal am</w> 9
ben ds</w> 9
ben ch,</w> 9
tan que</w> 9
gras s,</w> 9
ban anas.</w> 9
dur o</w> 9
lin e,</w> 9
micro fones</w> 9
micro phones</w> 9
gi cal</w> 9
bra ss</w> 9
the m,</w> 9
camer as</w> 9
hel icópter 9
hel icop 9
bicyc ling</w> 9
câmer as</w> 9
pat ch</w> 9
pat ina</w> 9
moto ciclist 9
del ici 9
pol es.</w> 9
dis plays</w> 9
dis curso</w> 9
soc cer,</w> 9
assist ir</w> 9
pen .</w> 9
pen dura</w> 9
jun tos,</w> 9
rol led</w> 9
work shop.</w> 9
cober tores</w> 9
com um</w> 9
min is 9
aci dent 9
aci dente</w> 9
tru mp 9
surf e</w> 9
abo r 9
garot a.</w> 9
iti es</w> 9
eat .</w> 9
chu p 9
shirt les 9
boo ts.</w> 9
boo ts,</w> 9
sel .</w> 9
sub st 9
sand wi 9
cai aques</w> 9
dri bl 9
dri bbl 9
segu indo</w> 9
bon és</w> 9
t- shirt,</w> 9
gol pe 9
chin ese</w> 9
cla pping</w> 9
ament e.</w> 9
cut e</w> 9
braç os.</w> 9
basquet e,</w> 9
cont in 9
comput ers</w> 9
hu g</w> 9
hu la 9
neg ro.</w> 9
fu r</w> 9
cow girl</w> 9
fli pera 9
guitar ist 9
temp or 9
over .</w> 9
over head</w> 9
chut e.</w> 9
mol dura</w> 9
inter ior</w> 9
gal op 9
cent ro.</w> 9
pan .</w> 9
mor tal</w> 9
patin ador</w> 9
dra w</w> 9
dra gging</w> 9
dra mati 9
ke e 9
aju sta</w> 9
machin es.</w> 9
ev itar</w> 9
produ tos.</w> 9
tril hos.</w> 9
cru z</w> 9
smo o 9
smo king.</w> 9
mag em</w> 9
laugh .</w> 9
kne es</w> 9
lea p</w> 9
sin k.</w> 9
Amer ic 9
metr ô,</w> 9
stra pped</w> 9
bel ong 9
sha w 9
oper ário</w> 9
oper ates</w> 9
art h</w> 9
cir úr 9
plan o,</w> 9
sapat o.</w> 9
fel l</w> 9
wel l- 9
deco rada</w> 9
cion ando</w> 9
wheel s</w> 9
strol ls</w> 9
chei as</w> 9
team ,</w> 9
team mate</w> 9
glo ves,</w> 9
wi g</w> 9
ún ica</w> 9
scen ic</w> 9
concer to</w> 9
bru ços</w> 9
present ing</w> 9
under water.</w> 9
fire truck.</w> 9
proje ct.</w> 9
shi el 9
escul pi 9
suspen ders</w> 9
inf ant.</w> 9
spra yed</w> 9
helmet s.</w> 9
blu e- 9
arre m 9
outf its.</w> 9
gogg les,</w> 9
emb racing</w> 9
fing er</w> 9
fing ers.</w> 9
estran ha</w> 9
esporti va</w> 9
escorreg ando</w> 9
escala da</w> 9
apar t</w> 9
plata forma.</w> 9
photograph s.</w> 9
spo on</w> 9
fotogra fia.</w> 9
bul l.</w> 9
ânci a</w> 9
rio t</w> 9
zz y</w> 9
sp ace.</w> 9
imag es</w> 9
adi an</w> 9
almo st</w> 9
trun k</w> 9
curv ada</w> 9
cand y.</w> 9
nat ure</w> 9
pne u.</w> 9
descans am</w> 9
imp ro 9
enfrent a</w> 9
inclin ada</w> 9
envol ve</w> 9
gest o</w> 9
ír is</w> 9
bam bu.</w> 9
heav ily</w> 9
spar k 9
Ar my</w> 9
recor ding</w> 9
vist os</w> 9
acrob á 9
trabal hos</w> 9
passag eiro</w> 9
boun cing</w> 9
dril l</w> 9
sofá ,</w> 9
andai me.</w> 9
shin y</w> 9
apan hador</w> 9
Fo o 9
Fo to</w> 9
Ess a</w> 9
Lo ts</w> 9
contain ing</w> 9
fazen dei 9
fazen deiro</w> 9
saxof on 9
aper ta</w> 9
flu oresc 9
loca ted</w> 9
mó vel</w> 9
espi a</w> 9
alinh adas</w> 9
til ed</w> 9
alc ança</w> 9
aproxi ma.</w> 9
lic king</w> 9
pup pies</w> 9
rasp ada</w> 9
estud ante</w> 9
via jam</w> 9
terce ira</w> 9
levanta m</w> 9
gaz ing</w> 9
gaz es</w> 9
hurd le</w> 9
ombro s.</w> 9
fashi oned</w> 9
store front.</w> 9
enfer ruj 9
cient í 9
ajud am</w> 9
mercadori as.</w> 9
academi a</w> 9
sitt ing.</w> 9
ano ite 9
mex endo</w> 9
Ba by</w> 9
rout ine.</w> 9
pee king</w> 9
beij am</w> 9
tromp ete</w> 9
telef éri 9
camufla gem</w> 9
spre ad</w> 9
Adul ts</w> 9
Adul tos</w> 9
redon da</w> 9
rapi ds.</w> 9
atti re,</w> 9
foc inh 9
esfreg ão</w> 9
sobre tudo</w> 9
pole gar</w> 9
horizon te</w> 9
arquiban cadas</w> 9
papé is.</w> 9
nam o 9
adjust s</w> 9
exten são</w> 9
azul- petróle 9
entreg ando</w> 9
wakeboar d</w> 9
muzz le</w> 9
aban don 9
Cam inh 9
arra stando</w> 9
banh eiro.</w> 9
opon ente</w> 9
travesse iro</w> 9
universit ários</w> 9
paralelepípe dos.</w> 9
ctor s</w> 9
peru ca</w> 9
sabo re 9
chuvo so.</w> 9
barbecu e.</w> 9
vacu u 9
aé rea</w> 9
clean er</w> 9
Can adian</w> 9
stack ed</w> 9
verti cal</w> 9
joi as</w> 9
tabul eiro</w> 9
apl icando</w> 9
directi ons.</w> 9
greyhoun d</w> 9
arremes so</w> 9
advertise ment.</w> 9
põ e</w> 9
pê lo</w> 9
arco- íris</w> 9
esta blish 9
potter y</w> 9
assu st 9
arbust os</w> 9
ji pe</w> 9
legu mes</w> 9
turb ante</w> 9
sandal s,</w> 9
recém-nas cido</w> 9
entusias mo</w> 9
cochil ando</w> 9
sop ra</w> 9
adm ira</w> 9
sleep ing.</w> 9
estrange iro</w> 9
hambúr guer 9
Roller bla 9
sniff ing</w> 9
riquix á</w> 9
tet o.</w> 9
estra da,</w> 9
bos que</w> 9
secon d</w> 9
country side.</w> 9
suspens órios</w> 9
gymnastic s</w> 9
two - 9
Ni ke</w> 9
Dis ne 9
Brit ish</w> 9
ange l</w> 9
bou quet</w> 9
ruí nas</w> 9
subi r</w> 9
tecla do.</w> 9
manuten ção</w> 9
syn chroni 9
vinta ge</w> 9
leot ard</w> 9
euro pe 9
sque e 9
séri e</w> 9
cone c 9
estab ele 9
quick ly</w> 9
beben do.</w> 9
gulose i 9
buqu ê</w> 9
after no 9
galler y.</w> 9
compartilh am</w> 9
activit y</w> 9
paz .</w> 9
Smil ing</w> 9
Pare ce</w> 9
Jen ga</w> 9
curly -haired</w> 9
shirtles s,</w> 9
b ê</w> 8
b rada</w> 8
b óia</w> 8
r ul 8
o "</w> 8
- of 8
- colored</w> 8
p ai 8
p it.</w> 8
p acking</w> 8
i o.</w> 8
i das</w> 8
i dos</w> 8
i sol 8
l é 8
l s,</w> 8
t es 8
t ying</w> 8
t rin 8
t le.</w> 8
t as,</w> 8
t eiros</w> 8
m ár 8
m iti 8
e d 8
e di 8
e d,</w> 8
e labo 8
s - 8
s a,</w> 8
s ões</w> 8
n er 8
n um</w> 8
n as.</w> 8
n este</w> 8
n 't</w> 8
g ed</w> 8
g ing.</w> 8
g ente.</w> 8
u z 8
u to</w> 8
x y 8
x ale</w> 8
f ree 8
f ico</w> 8
d ent</w> 8
d ust</w> 8
d ilha</w> 8
v ê</w> 8
v ad 8
h ada</w> 8
h ad</w> 8
ê n 8
á l 8
á .</w> 8
z ado</w> 8
í zes</w> 8
â ne 8
w ,</w> 8
w ing.</w> 8
w are 8
A o</w> 8
F is 8
S .</w> 8
S U 8
S t</w> 8
S te 8
k - 8
k is</w> 8
k la 8
k es.</w> 8
k sw 8
é ,</w> 8
M ú 8
M ic 8
M other</w> 8
C om 8
C ast 8
C ity.</w> 8
C ães</w> 8
G reen</w> 8
B ar 8
B as 8
E les</w> 8
y er</w> 8
Y el 8
Y ama 8
L in 8
K itch 8
O r 8
O limp 8
O kla 8
in hos.</w> 8
ar o</w> 8
es com 8
es posa</w> 8
es n't</w> 8
en A 8
en cara</w> 8
en sai 8
en che</w> 8
co bre</w> 8
er e.</w> 8
ho ma</w> 8
ho lo 8
re por 8
re colhendo</w> 8
re vistas</w> 8
ca lista</w> 8
ro bo 8
it am</w> 8
it 's</w> 8
ma carr 8
ma p.</w> 8
ma inten 8
est icando</w> 8
al go 8
al ça</w> 8
al tura</w> 8
al ha.</w> 8
al vo.</w> 8
st o</w> 8
st ing</w> 8
st ati 8
st all</w> 8
la t 8
la go 8
la dor</w> 8
la ço</w> 8
do ne</w> 8
do ned</w> 8
do ck,</w> 8
do esn't</w> 8
ra ção</w> 8
ra sa</w> 8
ra ste 8
un d</w> 8
un g</w> 8
ir t</w> 8
ent a</w> 8
ent ado</w> 8
ent emente</w> 8
qu anti 8
qu esti 8
at or</w> 8
at ura</w> 8
bo a</w> 8
so u</w> 8
ch est.</w> 8
ch ate 8
et y</w> 8
et s,</w> 8
ic y</w> 8
par ando</w> 8
or den 8
ad en 8
ur s 8
ur so</w> 8
to o</w> 8
to il 8
to cha</w> 8
se mb 8
se ca.</w> 8
se ction</w> 8
se ats</w> 8
pe er</w> 8
cam el 8
il ity</w> 8
and ando.</w> 8
ac ando</w> 8
po ss 8
po sed</w> 8
po urs</w> 8
po tato</w> 8
ver y 8
be g 8
be ge.</w> 8
be bez 8
be cause</w> 8
sh ade.</w> 8
sh agg 8
am oun 8
am os</w> 8
jo b.</w> 8
op e</w> 8
de - 8
we igh 8
car a.</w> 8
car ds.</w> 8
car etas</w> 8
ti ma</w> 8
ti red</w> 8
ti res</w> 8
ti ght</w> 8
ti ons.</w> 8
fo am</w> 8
fo cado</w> 8
ta pe.</w> 8
per correm</w> 8
per curso</w> 8
le mon 8
le g.</w> 8
le dge.</w> 8
out fiel 8
out ras.</w> 8
ado res,</w> 8
play er,</w> 8
vest em</w> 8
gra b</w> 8
us e.</w> 8
ing er</w> 8
for te</w> 8
for mando</w> 8
for ested</w> 8
ci ma,</w> 8
Th ey</w> 8
con si 8
con ne 8
ant ly</w> 8
mo s 8
mo ve.</w> 8
su m 8
stand ing,</w> 8
tra ve</w> 8
tra cks</w> 8
tra vel</w> 8
tra ctor.</w> 8
vi da</w> 8
vi agem</w> 8
Do gs</w> 8
loo ked</w> 8
gar es</w> 8
gar age.</w> 8
mar i 8
mar k</w> 8
mar ch</w> 8
bu cks</w> 8
bu ried</w> 8
fi o.</w> 8
fi co.</w> 8
fi cado</w> 8
cu to 8
let ras</w> 8
ag en</w> 8
ag ens.</w> 8
no lo 8
cal ,</w> 8
fr en 8
da y,</w> 8
te ar.</w> 8
te atro.</w> 8
pi e</w> 8
pi d 8
pa y</w> 8
pa uz 8
ju ice</w> 8
pas s.</w> 8
mer 's</w> 8
mer cial</w> 8
brin cadeira</w> 8
des co 8
des fi 8
des via</w> 8
wa sh 8
bro om.</w> 8
bar ris</w> 8
comp ra</w> 8
pin ata.</w> 8
pul veri 8
mal a</w> 8
man ne 8
man do.</w> 8
man gueira.</w> 8
ob ter</w> 8
ment ary</w> 8
hi dr 8
hi stori 8
ári o,</w> 8
ári os.</w> 8
fe dora</w> 8
flo r.</w> 8
skat e,</w> 8
bri cks</w> 8
jump er</w> 8
sal e</w> 8
sal si 8
trabalh ar</w> 8
mu ch</w> 8
tur í 8
tur ban</w> 8
tur bul 8
ni ca.</w> 8
mon os</w> 8
mon tado</w> 8
mon key</w> 8
cab ana.</w> 8
tic ket</w> 8
pu ck.</w> 8
buil t</w> 8
tri co 8
sur gical</w> 8
pal af 8
pal mas.</w> 8
pal meiras</w> 8
sa y</w> 8
cer ca,</w> 8
por que</w> 8
rin gue.</w> 8
tor s</w> 8
go ver 8
go stam</w> 8
side ways</w> 8
ven .</w> 8
ven ding</w> 8
pequen a.</w> 8
ber et</w> 8
oran ge,</w> 8
can aden 8
list en</w> 8
liv ely</w> 8
cur va.</w> 8
lu gg 8
hand ed</w> 8
fil me</w> 8
fil ming</w> 8
fac a</w> 8
fac tory.</w> 8
fal l.</w> 8
caval eiros</w> 8
ban ner</w> 8
ban co,</w> 8
ban jo.</w> 8
cost urando</w> 8
vo calista</w> 8
prepar ar</w> 8
micro phones.</w> 8
beb ês</w> 8
pl ant.</w> 8
ten das</w> 8
read .</w> 8
constru ction.</w> 8
adul t.</w> 8
carreg ado</w> 8
ici ans</w> 8
ici onal</w> 8
cre ate</w> 8
cti ons</w> 8
dis played</w> 8
win e 8
win e.</w> 8
corri da,</w> 8
vel ho.</w> 8
Asi a.</w> 8
dire ction.</w> 8
dire cting</w> 8
spe ci 8
com mercial</w> 8
hil ls.</w> 8
pain ter</w> 8
pain el</w> 8
head ,</w> 8
head dress</w> 8
cic lo 8
vol ta.</w> 8
vol tadas</w> 8
dar k.</w> 8
dei ras.</w> 8
montan ha,</w> 8
baix o,</w> 8
cyc ling</w> 8
ani mais.</w> 8
sel v 8
esper a.</w> 8
bus ca</w> 8
drin king.</w> 8
guar ds</w> 8
apresent ar</w> 8
fru its.</w> 8
balanç am</w> 8
snowboar ds</w> 8
bon de</w> 8
fam il 8
moviment ado</w> 8
bag ,</w> 8
dr en 8
dr al.</w> 8
windo ws.</w> 8
esp uma</w> 8
gr ita</w> 8
stu ck</w> 8
stu dent 8
cont endo</w> 8
comput adores</w> 8
tele visão</w> 8
tele visão.</w> 8
tele vision.</w> 8
raf t.</w> 8
Ho ckey</w> 8
len ç 8
len ha</w> 8
gather ing.</w> 8
cell o</w> 8
cast le</w> 8
rac ers</w> 8
inter no.</w> 8
gal eria</w> 8
pres ent</w> 8
tijolo s,</w> 8
brilh ando</w> 8
brilh ante,</w> 8
americ ana.</w> 8
water 's</w> 8
water way.</w> 8
water front.</w> 8
pan ela.</w> 8
mor de</w> 8
patin s.</w> 8
patin am</w> 8
patin adores</w> 8
patin ação</w> 8
dra ped</w> 8
dra ws</w> 8
prote ct</w> 8
limp am</w> 8
xi lo 8
empur ram</w> 8
aber tos.</w> 8
estacion ada</w> 8
mus culo 8
box e</w> 8
arti fíci 8
kne e- 8
lea f</w> 8
lea gue</w> 8
sin ais</w> 8
fol es</w> 8
tran qui 8
vis itando</w> 8
óque is</w> 8
art s.</w> 8
cra ch 8
pad rão</w> 8
up ,</w> 8
plan e.</w> 8
trad icional</w> 8
skir t.</w> 8
Bo ston</w> 8
atu ando</w> 8
tou ca</w> 8
jorn ais</w> 8
super mercado.</w> 8
wheel ed</w> 8
nu vens</w> 8
nu merous</w> 8
fore head.</w> 8
kis ses</w> 8
strol ling</w> 8
pilo t</w> 8
glo ve</w> 8
wi res</w> 8
ún ico</w> 8
encost a.</w> 8
concer to.</w> 8
ensolar ada.</w> 8
har vest 8
parti da.</w> 8
bru shes</w> 8
aqu a</w> 8
aqu ari 8
under wear</w> 8
garraf a.</w> 8
macac ões</w> 8
fire truck</w> 8
cri ando</w> 8
ajoelh ados</w> 8
suspen sa</w> 8
desli z 8
spra ys</w> 8
dark ened</w> 8
wai ian</w> 8
far mer</w> 8
barbu do,</w> 8
aliment os.</w> 8
tren ó.</w> 8
cruz amento.</w> 8
fing er 8
fing er.</w> 8
femin inas</w> 8
rece be</w> 8
mid st</w> 8
ty pes</w> 8
spla shed</w> 8
apar elho</w> 8
dest in 8
suit case</w> 8
protest o.</w> 8
hon ra</w> 8
ham mo 8
ham mering</w> 8
kaya king</w> 8
escre ve</w> 8
rain coat</w> 8
roller - 8
arboriz ado.</w> 8
tar get.</w> 8
medi um</w> 8
Garo to</w> 8
lan che</w> 8
carro ça.</w> 8
barri er</w> 8
trein ando</w> 8
bil h 8
giná stica.</w> 8
nev ada</w> 8
figur as</w> 8
clou d</w> 8
bath room.</w> 8
escrit óri 8
sandáli as,</w> 8
próxi mos.</w> 8
slo pe</w> 8
gest uring</w> 8
stun t.</w> 8
exer cit 8
uniformiz ado</w> 8
grocer ies</w> 8
spar ring</w> 8
itu re.</w> 8
afa sta.</w> 8
estamp ado</w> 8
estamp ada</w> 8
conte ú 8
kha kis</w> 8
Mo use</w> 8
mast ro.</w> 8
trase iras</w> 8
navi gates</w> 8
sco uts</w> 8
horse ,</w> 8
appro aches</w> 8
brown ,</w> 8
Lo o 8
contain er.</w> 8
skin ny</w> 8
spee ding</w> 8
follo wed</w> 8
saxof one.</w> 8
jant ando</w> 8
carniv al.</w> 8
fotograf ado</w> 8
Be bê</w> 8
fight ing.</w> 8
cheerlead ing</w> 8
profes sion 8
bambol ê.</w> 8
bever ages.</w> 8
funcion ário</w> 8
tam bor.</w> 8
spin s</w> 8
kil ts</w> 8
Te en 8
str inged</w> 8
mochi la,</w> 8
laborat ório.</w> 8
agar rando</w> 8
eg g</w> 8
cro co 8
enro lada</w> 8
estre ita</w> 8
entre vist 8
fashi on</w> 8
caucasi an</w> 8
políci a.</w> 8
receb er</w> 8
pack ed</w> 8
arma z 8
mex ic 8
tráfe go.</w> 8
acamp amento.</w> 8
gan gor 8
gan har</w> 8
avent ais</w> 8
cke ys</w> 8
cerca do.</w> 8
Sk ati 8
airpor t</w> 8
mergulh adores</w> 8
mask ,</w> 8
mask .</w> 8
cachorrin ho.</w> 8
pige ons</w> 8
pige ons.</w> 8
pren dendo</w> 8
extre mi 8
transeun tes</w> 8
ginási o</w> 8
McDonal d's.</w> 8
alcanç ar</w> 8
pára-que das</w> 8
mach ado.</w> 8
attenti on</w> 8
pombo s</w> 8
pombo s.</w> 8
compani on</w> 8
hill side</w> 8
aprove itando</w> 8
Olymp ic</w> 8
comemor a</w> 8
writ es</w> 8
diz endo</w> 8
exhi bit</w> 8
relógi o</w> 8
incêndi o.</w> 8
nap ping</w> 8
âmi ca.</w> 8
borra cha.</w> 8
Fire fighters</w> 8
silhou et 8
bund le</w> 8
break dancing</w> 8
Ex ército</w> 8
chee k.</w> 8
espan hol 8
flan ela</w> 8
flan nel</w> 8
furn iture</w> 8
furn iture.</w> 8
Am ish</w> 8
boche cha.</w> 8
libr ary.</w> 8
martel ando</w> 8
martel o.</w> 8
notur no.</w> 8
dino ss 8
dino sa 8
gymnasi um</w> 8
gymnasi um.</w> 8
fábri ca.</w> 8
clut tered</w> 8
retra to</w> 8
lec ture</w> 8
figu res</w> 8
saco de</w> 8
theat er.</w> 8
kick box 8
binocul ars</w> 8
pinh eiros.</w> 8
repar os</w> 8
begin s</w> 8
short -haired</w> 8
tricyc le</w> 8
cafet eria.</w> 8
wheelbar row.</w> 8
artesan ato</w> 8
abri r</w> 8
mur ky</w> 8
cher ry</w> 8
tiar a</w> 8
tigh ts</w> 8
portra it</w> 8
aleg óri 8
vitóri a</w> 8
tábu a</w> 8
mediev al</w> 8
Skat eboarder</w> 8
ricksha w</w> 8
bambo o</w> 8
Wa shing 8
alley way.</w> 8
parap ente</w> 8
supor te</w> 8
path way</w> 8
trepa-tre pa.</w> 8
comm uni 8
escr ita</w> 8
máscar as</w> 8
lâmp ada</w> 8
merchand ise</w> 8
Squ are</w> 8
Scho ol</w> 8
anun ciando</w> 8
label ed</w> 8
unus ual</w> 8
load ed</w> 8
cheer ing.</w> 8
facil ity.</w> 8
habili dades</w> 8
quadro- negro.</w> 8
sombr er 8
exercíci os</w> 8
engenho ca</w> 8
bm x</w> 8
scor e</w> 8
uk ul 8
Ado lesc 8
Cou ple</w> 8
Ha waiian</w> 8
home made</w> 8
miniv an</w> 8
courty ard</w> 8
interest ing</w> 8
scarf ,</w> 8
hard wood</w> 8
barefoo ted</w> 8
espregui ç 8
lingeri e</w> 8
pumpk in</w> 8
etiquet a</w> 8
Vari ous</w> 8
Nati ve</w> 8
Mex ican</w> 8
alto- fal 8
grave to</w> 8
tug -of 8
tux e 8
tread mil 8
helicópter o</w> 8
contin u 8
anoite cer.</w> 8
hambúrguer es</w> 8
synchroni zed</w> 8
squee zing</w> 8
xy lo 8
ksw agen</w> 8
Mic key</w> 8
Kitch enA 8
Olimp íadas</w> 8
Okla homa</w> 8
holo fo 8
quanti dade</w> 8
bebez inho</w> 8
shagg y</w> 8
amoun t</w> 8
lugg age.</w> 8
tug-of - 8
b in</w> 7
b ra.</w> 7
b ati 7
b amb 7
b read.</w> 7
a wait</w> 7
r é 7
r ings</w> 7
r ings.</w> 7
r y- 7
c res 7
c elo</w> 7
c ans</w> 7
o v 7
o wn</w> 7
o vo</w> 7
o ven.</w> 7
- lined</w> 7
p in</w> 7
p an</w> 7
p ace</w> 7
i gu 7
i di 7
i dades</w> 7
l ente</w> 7
l ers.</w> 7
t ress</w> 7
m í 7
e c 7
e p 7
e x</w> 7
e ing</w> 7
e ma</w> 7
s si 7
s ack 7
s air</w> 7
s na 7
s elec 7
s pring</w> 7
n or 7
n eta</w> 7
g ado.</w> 7
g algo</w> 7
g th</w> 7
g ás</w> 7
õ es,</w> 7
f er</w> 7
f ying</w> 7
f itas</w> 7
d inho</w> 7
v il.</w> 7
ç ul 7
ê - 7
á ra 7
á vel</w> 7
z one.</w> 7
ã os</w> 7
" F 7
" T 7
" E 7
w ere</w> 7
ó r 7
ú mi 7
A p 7
A ra 7
A ir 7
F ar 7
S h 7
S pee 7
k ings</w> 7
D I 7
D ar 7
M an 7
M or 7
M on 7
M ac 7
M emb 7
C ent 7
G i 7
B ri 7
B at 7
B ur 7
B il 7
B run 7
B om 7
T a 7
T or 7
U S 7
E u 7
E le 7
E qui 7
E la</w> 7
E ast</w> 7
W e</w> 7
' s.</w> 7
Í ndi 7
L ou 7
J u 7
J ack</w> 7
O ut 7
in er</w> 7
ar da</w> 7
ar de 7
ar co.</w> 7
ar du 7
es pu 7
es far 7
en cont 7
en cen 7
co s 7
co p</w> 7
er ly</w> 7
ho n</w> 7
re r</w> 7
re le 7
re ta</w> 7
re tro 7
re bater</w> 7
re pousa</w> 7
ca ge</w> 7
ca te 7
ca t.</w> 7
ca the 7
ca is,</w> 7
ca ma,</w> 7
ro d 7
ro sto 7
it h</w> 7
it os</w> 7
it s,</w> 7
it ando.</w> 7
ma y 7
ma jo 7
ma ge</w> 7
ma pa.</w> 7
th ick</w> 7
al one.</w> 7
st af 7
la id</w> 7
la b.</w> 7
do tted</w> 7
ra mi 7
ra dor</w> 7
el ,</w> 7
el ed</w> 7
lo r 7
lo u</w> 7
lo gs</w> 7
ir ,</w> 7
ent s.</w> 7
ent arde 7
qu al</w> 7
qu eia</w> 7
bo m</w> 7
bo w.</w> 7
so pro 7
ch ap 7
ch ers.</w> 7
ad mi 7
ad amente</w> 7
to s 7
to ol.</w> 7
to cador</w> 7
se ar 7
se qu 7
se ball</w> 7
se ção</w> 7
se mic 7
se má 7
se ven</w> 7
se m- 7
pe de</w> 7
pe dd 7
pe ça.</w> 7
ru p 7
il a</w> 7
and ares</w> 7
and ex</w> 7
si des</w> 7
si ons</w> 7
po p 7
po eira</w> 7
po tes</w> 7
po wer</w> 7
po usar</w> 7
ver ing</w> 7
ver des,</w> 7
wh en</w> 7
me ado 7
me et.</w> 7
me dit 7
br is</w> 7
ol s</w> 7
be ating</w> 7
li m</w> 7
li mb 7
li ber 7
li mão</w> 7
am id</w> 7
jo b</w> 7
op .</w> 7
de er</w> 7
de bris</w> 7
gu lar</w> 7
gu ide</w> 7
we en.</w> 7
men u</w> 7
men u.</w> 7
bal l 7
di ve</w> 7
as sen 7
as sin 7
as sem 7
car te 7
car as,</w> 7
car ros.</w> 7
ti c</w> 7
ti rada</w> 7
ti cos</w> 7
ti cas</w> 7
ti po.</w> 7
fo gos</w> 7
fo ggy</w> 7
ta il 7
ta co.</w> 7
ta gs</w> 7
le to</w> 7
le que</w> 7
le y.</w> 7
le ad</w> 7
bl e.</w> 7
bl ind 7
us ava</w> 7
for d</w> 7
for te.</w> 7
cor tin 7
ap .</w> 7
ap s</w> 7
ap par 7
ap óia</w> 7
con cha</w> 7
con fu 7
con clu 7
mo da</w> 7
mo wing</w> 7
mo wer.</w> 7
su co</w> 7
elh a</w> 7
vi bran 7
jog s</w> 7
jog adoras</w> 7
mar inh 7
mar ble</w> 7
mar car</w> 7
segur ança.</w> 7
fi ca 7
fi er</w> 7
cu ps</w> 7
cu ram</w> 7
cu eca</w> 7
ag rup 7
no od 7
no ite,</w> 7
fr ying</w> 7
da ily</w> 7
ou vem</w> 7
bi e</w> 7
te e.</w> 7
te en</w> 7
pa sta</w> 7
pa cote</w> 7
pa usa.</w> 7
ju dges</w> 7
ju ízes</w> 7
brin cando.</w> 7
des ser 7
des cent</w> 7
sho ppers</w> 7
bro chur 7
bar cos.</w> 7
bar ely</w> 7
pra ta.</w> 7
comp radores</w> 7
mi x</w> 7
mi stu 7
ter ,</w> 7
corr entes</w> 7
pin s.</w> 7
pin gu 7
pin tar</w> 7
pin tura.</w> 7
pin tados</w> 7
cas a,</w> 7
man ual</w> 7
boar ding</w> 7
pro g 7
pro va</w> 7
pro ces 7
pro curam</w> 7
amar e 7
amar rada</w> 7
ve las.</w> 7
ári as</w> 7
fe z</w> 7
flo ra 7
flo ck</w> 7
flo or,</w> 7
ser rando</w> 7
he ar 7
bri d 7
sal pi 7
sal a,</w> 7
pos e.</w> 7
mu seu</w> 7
chapé us.</w> 7
mes s</w> 7
ni co.</w> 7
ni cos</w> 7
ex iting</w> 7
ex pan 7
ex posi 7
ex ército</w> 7
pass ando.</w> 7
shor t,</w> 7
of ici 7
of fer 7
tal k.</w> 7
ge ar,</w> 7
pare cido</w> 7
pare de,</w> 7
sor t.</w> 7
sor rindo,</w> 7
qui et</w> 7
tri p.</w> 7
sur e</w> 7
vers ity</w> 7
sa d</w> 7
cer a</w> 7
cer ti 7
tu res</w> 7
tu rista</w> 7
por to.</w> 7
rin gue</w> 7
tor ch</w> 7
col li 7
col he 7
col he</w> 7
col inas</w> 7
pic ket</w> 7
ven u 7
ja to</w> 7
du ras.</w> 7
tre at</w> 7
ber ry</w> 7
can e.</w> 7
can al.</w> 7
can non</w> 7
laran jas</w> 7
cur ta</w> 7
cit iz 7
met ro 7
met al,</w> 7
multid ão,</w> 7
fil l</w> 7
che ese</w> 7
che gada.</w> 7
velh as.</w> 7
fal so</w> 7
tan k.</w> 7
sun light</w> 7
sun bathing</w> 7
sc ópi 7
lin ing</w> 7
bei ros</w> 7
ati va</w> 7
vo ,</w> 7
vo ando.</w> 7
prepar ando-se</w> 7
beb er</w> 7
beb ê,</w> 7
gi f 7
fri gi 7
ten ista</w> 7
bra i 7
read ing.</w> 7
adul tos,</w> 7
câmer as.</w> 7
danç am.</w> 7
fer ro.</w> 7
moto queiro</w> 7
ped al</w> 7
win d</w> 7
win ter.</w> 7
equip e.</w> 7
im ando</w> 7
ga me,</w> 7
mã e.</w> 7
mã e,</w> 7
mã os,</w> 7
pen cil</w> 7
cabe ças</w> 7
cade ir 7
Asi ans</w> 7
rol a</w> 7
rol l</w> 7
rol ls</w> 7
dire ções</w> 7
work ,</w> 7
work out</w> 7
azul e 7
cober tos</w> 7
stri king</w> 7
com uni 7
com posta</w> 7
var al.</w> 7
hil l,</w> 7
fla sh 7
bat .</w> 7
bat em</w> 7
bat man</w> 7
bat tle</w> 7
bat atas</w> 7
outdo ors,</w> 7
atra ente</w> 7
dor ,</w> 7
sig ning</w> 7
stic k,</w> 7
cyc list 7
cant a.</w> 7
ali zando</w> 7
ido s.</w> 7
sle d.</w> 7
sle dding</w> 7
lut adores</w> 7
sing s.</w> 7
rox o,</w> 7
tow er</w> 7
blo queia</w> 7
midd le.</w> 7
tro t 7
tro f 7
tro ph 7
swim suits</w> 7
fru tos</w> 7
coo ki 7
sweat er.</w> 7
sweat shirt,</w> 7
segu e.</w> 7
snowboar ders</w> 7
cat es 7
bon g 7
inc line.</w> 7
em bo 7
esqu ina,</w> 7
ament .</w> 7
ament e,</w> 7
sorri em.</w> 7
esp á 7
cloth es,</w> 7
part itu 7
flow er.</w> 7
stu dio</w> 7
stu ff</w> 7
árvo re,</w> 7
tele vision</w> 7
hu man</w> 7
motorcyc les.</w> 7
pes ado</w> 7
fu gindo</w> 7
fu zzy</w> 7
guarda-chu va,</w> 7
len s.</w> 7
na med</w> 7
pil low</w> 7
musi cais.</w> 7
indi anos</w> 7
mark ed</w> 7
guitar ras</w> 7
cha sed</w> 7
cozinh eiro</w> 7
cast ing</w> 7
pux ar</w> 7
inter vie 7
spor t.</w> 7
dist or 7
pres os</w> 7
americ anas</w> 7
ski ing.</w> 7
water skiing</w> 7
pan o.</w> 7
pan elas</w> 7
mor en 7
hous es</w> 7
hous es.</w> 7
fl y.</w> 7
ke l</w> 7
veget ação</w> 7
prote g 7
prote ge</w> 7
fish es</w> 7
aber tos</w> 7
aju dar</w> 7
estacion adas</w> 7
passe ar.</w> 7
mus cular</w> 7
anti ga.</w> 7
íli a</w> 7
mat ch,</w> 7
fol es.</w> 7
tran sit</w> 7
poin ted</w> 7
art í 7
arei a,</w> 7
cra shing</w> 7
set s.</w> 7
spea ker</w> 7
espor te.</w> 7
fel low</w> 7
fel pu 7
test a.</w> 7
carri er</w> 7
wn ,</w> 7
cano as</w> 7
rode adas</w> 7
bir ds.</w> 7
famíli a.</w> 7
diver s</w> 7
diver ti 7
apro ns</w> 7
super - 7
super vi 7
wheel s.</w> 7
nu de</w> 7
lav ar.</w> 7
joelh o</w> 7
conser tam</w> 7
numb ers</w> 7
kis s.</w> 7
bron ze</w> 7
mountain ous</w> 7
para peito</w> 7
glo ves.</w> 7
corre deiras.</w> 7
va ul 7
desen har</w> 7
scen ery.</w> 7
encost adas</w> 7
vari ety</w> 7
fet ti</w> 7
vehic les.</w> 7
bott les.</w> 7
pô ne 7
rob e.</w> 7
cri a</w> 7
cri ar</w> 7
Con cer 7
shi p.</w> 7
news papers</w> 7
estru tura.</w> 7
tatu ada</w> 7
marci ais,</w> 7
wrest lers</w> 7
eng at 7
far mers</w> 7
mas co 7
mas ks</w> 7
mas cote</w> 7
esquer do.</w> 7
loi ros,</w> 7
tren ch</w> 7
cruz adas</w> 7
squ ats</w> 7
coffe e.</w> 7
clu be.</w> 7
ty ping</w> 7
tap ete.</w> 7
afro-americ anos</w> 7
refle xo</w> 7
fres cos</w> 7
dest ro 7
dun e</w> 7
churras co.</w> 7
sp andex</w> 7
wr itten</w> 7
Ch ina</w> 7
compan hi 7
complet ing</w> 7
nati vo</w> 7
nati vos</w> 7
stret ches</w> 7
listra do,</w> 7
ish ed</w> 7
busin ess.</w> 7
próxim os</w> 7
quei jo</w> 7
barri l</w> 7
cross country</w> 7
celebra tion.</w> 7
cand le</w> 7
nat ação.</w> 7
Gu ys</w> 7
discus s</w> 7
fech ada.</w> 7
ear s.</w> 7
enfrent ar</w> 7
bura co.</w> 7
craf ts</w> 7
envol to</w> 7
envol vendo</w> 7
rif le</w> 7
aprox ima 7
aprox imando</w> 7
backpack ,</w> 7
xí cara.</w> 7
ador ned</w> 7
solit ária</w> 7
rep leto</w> 7
gor do</w> 7
experi mento</w> 7
ân tan 7
ân ica</w> 7
ân gul 7
apre ci 7
mel anci 7
war ming</w> 7
war ds.</w> 7
som bras</w> 7
pati o</w> 7
pati ent</w> 7
pati ent.</w> 7
moun d.</w> 7
médi cos</w> 7
enter tain</w> 7
acrob atic</w> 7
ami ga</w> 7
pun ch</w> 7
hoop s.</w> 7
sem i</w> 7
boun ds</w> 7
carat ê.</w> 7
inflá veis</w> 7
telescópi o.</w> 7
wil der 7
Lo cal</w> 7
fazen da.</w> 7
ferro via</w> 7
dispositi vos</w> 7
spee ds</w> 7
paviment ado</w> 7
bin óculos</w> 7
grin ds</w> 7
stom ers</w> 7
loca tion.</w> 7
somb re 7
somb ri 7
termin ando</w> 7
termin ar</w> 7
themsel ves.</w> 7
magaz ine.</w> 7
alinh ada</w> 7
combin ando.</w> 7
tex to</w> 7
cheerlead er</w> 7
hot dog</w> 7
horiz on.</w> 7
dol l</w> 7
bever age.</w> 7
tab le 7
video ta 7
saxop hone.</w> 7
sy m 7
aten ção</w> 7
waterfal l</w> 7
aquá tico.</w> 7
gaz e</w> 7
dy ed</w> 7
person 's</w> 7
cacho eira</w> 7
Le gos.</w> 7
ston es</w> 7
entr ance.</w> 7
booth s</w> 7
acti v 7
restaurant ,</w> 7
store front</w> 7
opost os</w> 7
mun do.</w> 7
arran ge 7
enfer meiras</w> 7
divers ões</w> 7
borrif ando</w> 7
exibi ção.</w> 7
mant er</w> 7
lacros se.</w> 7
shado ws</w> 7
desig ned</w> 7
yhoun d</w> 7
paci ente</w> 7
paci ente.</w> 7
gai ola</w> 7
det er 7
Ba seball</w> 7
ron ment.</w> 7
stor m.</w> 7
cerca da.</w> 7
201 2.</w> 7
ain da</w> 7
ly wed</w> 7
japon es 7
wag on.</w> 7
Pi lo 7
Bi g</w> 7
stil ts</w> 7
travel s</w> 7
patter n</w> 7
bagun ça</w> 7
obstac le.</w> 7
lanter na</w> 7
aeropor to</w> 7
escon dendo</w> 7
coast er.</w> 7
separ ate</w> 7
turqu esa</w> 7
audit ório</w> 7
transeun tes.</w> 7
horizon te.</w> 7
ais le</w> 7
ais le.</w> 7
lanc honete</w> 7
kno wn</w> 7
ergu endo</w> 7
microfon es.</w> 7
acrobaci a</w> 7
acrobaci as</w> 7
An g 7
An gel 7
casqu inhas</w> 7
muzz led</w> 7
sanduí che.</w> 7
embrul hado</w> 7
chain saw</w> 7
aban doned</w> 7
wait er</w> 7
bair ro.</w> 7
tranç as</w> 7
adorme ceu</w> 7
ceremon y.</w> 7
religi ous</w> 7
nur ses</w> 7
fan s.</w> 7
Uni versity</w> 7
bone co</w> 7
ativi dades</w> 7
paralelepípe dos</w> 7
boul der.</w> 7
vacu um</w> 7
profission ais</w> 7
taref as</w> 7
aé re 7
Mus icians</w> 7
Euro pe 7
joi as.</w> 7
tabul eiro.</w> 7
apl ica</w> 7
apag ar</w> 7
agit adas.</w> 7
bibliote ca</w> 7
bibliote ca.</w> 7
greyhoun ds</w> 7
arremes sa</w> 7
estrang eiro.</w> 7
experiment ando</w> 7
Midd le</w> 7
Midd le-aged</w> 7
fábri ca</w> 7
blea chers</w> 7
aç ou 7
aque cendo</w> 7
hus ky</w> 7
Ven dors</w> 7
envi ronment.</w> 7
cot ton</w> 7
ergui dos</w> 7
lade ado</w> 7
reflexi vos</w> 7
bagunç ada.</w> 7
arn ês</w> 7
lim pe 7
ingredi entes</w> 7
ingredi ents</w> 7
manti mentos</w> 7
deli cates 7
employ ee</w> 7
princi pal 7
princi pal</w> 7
envolvi dos</w> 7
enthusi a 7
trâns ito</w> 7
trâns ito.</w> 7
pir âmi 7
fare jando</w> 7
Pro test 7
arca de</w> 7
lamb endo</w> 7
lamacent o.</w> 7
attra ctive</w> 7
meet ing.</w> 7
worl d</w> 7
ofic ina.</w> 7
stoma ch</w> 7
craw ls</w> 7
bull do 7
leopar d</w> 7
montanha-russ a</w> 7
Play ers</w> 7
arru mando</w> 7
camin honete</w> 7
manh ã</w> 7
backdro p.</w> 7
cerimôni a</w> 7
violon celo</w> 7
equilíbri o</w> 7
thou gh</w> 7
áre a.</w> 7
Nu merous</w> 7
Stat e</w> 7
Cu stomers</w> 7
inju red</w> 7
urn ament.</w> 7
meas uring</w> 7
supp li 7
shore line</w> 7
extra vag 7
surger y.</w> 7
capacet e,</w> 7
empo ei 7
boxe ador</w> 7
laundro mat.</w> 7
snor kel</w> 7
classi c</w> 7
mastig ando</w> 7
chalk board.</w> 7
auditori um.</w> 7
féri as.</w> 7
aldei a</w> 7
sopra dor</w> 7
memo ri 7
blur red</w> 7
cond iti 7
proc ess</w> 7
portá til.</w> 7
cans ado</w> 7
Coca- Cola</w> 7
localiz ada</w> 7
contrap tion</w> 7
pente ado</w> 7
sincroni z 7
tamp a</w> 7
suti ã</w> 7
Sno w 7
Star bucks</w> 7
Ási a.</w> 7
ansi osamente</w> 7
enla me 7
reve z 7
illumin ated</w> 7
canh ão</w> 7
hula - 7
enferruj ada.</w> 7
pai .</w> 7
vad eando</w> 7
Yel low</w> 7
algo dão</w> 7
artifíci o</w> 7
Skati sta</w> 7
silhouet ted</w> 7
Washing ton</w> 7
communi ca 7
çul man 7
Memb ers</w> 7
Brun ette</w> 7
Bom beiros</w> 7
vibran t</w> 7
ângul o</w> 7
b ent 6
b le 6
b ele 6
a o 6
a ks</w> 6
a board</w> 6
a uti 6
a ções</w> 6
a ço.</w> 6
r al.</w> 6
c t 6
c ings</w> 6
c rist 6
c rown</w> 6
c rest</w> 6
c und 6
o correndo</w> 6
o il</w> 6
o sos</w> 6
o ven</w> 6
o sas</w> 6
o velhas.</w> 6
- style</w> 6
p and 6
p rou 6
p ântan 6
i es.</w> 6
i mon 6
l ismo</w> 6
t í 6
t anto</w> 6
t uni 6
t ch</w> 6
t ment</w> 6
t amente</w> 6
t art 6
t wi 6
t hose</w> 6
m oran 6
m bon 6
j az 6
j óqueis</w> 6
e as 6
e very 6
s at 6
s ing.</w> 6
s lu 6
s ár 6
s ete</w> 6
s pat 6
s cat 6
s ance</w> 6
s amu 6
s it,</w> 6
s add 6
n is,</w> 6
g es.</w> 6
g adas</w> 6
g orn 6
u ra.</w> 6
u ber 6
x .</w> 6
x a</w> 6
f ic 6
f at</w> 6
d ani 6
v ul 6
v ale</w> 6
v alley.</w> 6
v eter 6
h en 6
h ut.</w> 6
ê s,</w> 6
z er.</w> 6
z om 6
z ona</w> 6
í ri 6
N in 6
ã s.</w> 6
" A 6
" I</w> 6
" The</w> 6
w on 6
w as 6
w rist 6
w ish</w> 6
w ash</w> 6
ú l 6
1 2</w> 6
9 5 6
F r 6
S W 6
S un 6
S he</w> 6
S quar 6
S panish</w> 6
k ers,</w> 6
D a 6
D S</w> 6
D es 6
D anç 6
P en 6
P ic 6
M ad 6
M ets</w> 6
C er 6
C ir 6
C ali 6
C ity</w> 6
G O 6
G ru 6
G ol 6
G rou 6
B an 6
B er 6
B ir 6
B us 6
B ull</w> 6
H ar 6
T y 6
T an 6
E stud 6
y set</w> 6
y ota</w> 6
8 .</w> 6
L as</w> 6
K en 6
K il 6
K aya 6
O n 6
O "</w> 6
O range</w> 6
& amp 6
3 0</w> 6
? "</w> 6
in i 6
in e 6
in se 6
in vesti 6
in as.</w> 6
in tri 6
in ici 6
in vis 6
in feliz</w> 6
in comum</w> 6
an ha 6
an gas</w> 6
an gue 6
an vil.</w> 6
ar u 6
ar s.</w> 6
ar mas.</w> 6
ar te,</w> 6
es e.</w> 6
es for 6
es sa</w> 6
en ds</w> 6
co el 6
co con 6
co ck 6
co elho</w> 6
er gi 6
ho e</w> 6
ho u</w> 6
ho r</w> 6
re fu 6
re dores</w> 6
re cent 6
re d- 6
re mos</w> 6
re vist 6
re turn</w> 6
re vista.</w> 6
re batedor</w> 6
ca b</w> 6
ca tando</w> 6
ca ça</w> 6
ca bra</w> 6
ca indo.</w> 6
ro o 6
ro d</w> 6
ro d.</w> 6
ro bat 6
ro na 6
ro tin 6
it ed</w> 6
ma y</w> 6
ma in 6
ma id</w> 6
ma mente</w> 6
ma scar 6
ma las.</w> 6
ma cho</w> 6
th s</w> 6
th ings.</w> 6
th um 6
est and 6
est eira.</w> 6
est avam</w> 6
al u 6
al es</w> 6
al has</w> 6
al to,</w> 6
st ,</w> 6
st air</w> 6
st rando</w> 6
la das</w> 6
la mp.</w> 6
la pid 6
do cu 6
do bra 6
do so</w> 6
do ca,</w> 6
do brando</w> 6
do jo.</w> 6
do ces.</w> 6
ra z 6
ra king</w> 6
ra ck</w> 6
ra dos.</w> 6
ra ise</w> 6
ri .</w> 6
ri der,</w> 6
ri mmed</w> 6
un k</w> 6
un has</w> 6
un ice 6
un loading</w> 6
lo se</w> 6
lo ck 6
lo bby</w> 6
ul ando</w> 6
ul ls</w> 6
ul timate</w> 6
ent os</w> 6
ent as.</w> 6
qu í 6
qu ad</w> 6
at a 6
at ing.</w> 6
at s,</w> 6
bo n.</w> 6
bo ca,</w> 6
so li 6
so ars</w> 6
so ap</w> 6
ch is 6
ch ick 6
et nam 6
ic ul 6
par te.</w> 6
par ent</w> 6
par ale 6
par ents</w> 6
or ando</w> 6
or es,</w> 6
or dering</w> 6
ad es 6
ad es</w> 6
ad vent 6
to es</w> 6
to mb 6
to mar</w> 6
se x 6
se es 6
se cu 6
se cando</w> 6
se ca</w> 6
se ja</w> 6
se cund 6
pe ç 6
pe ers</w> 6
on - 6
on ing</w> 6
on ete</w> 6
on e- 6
cam els</w> 6
ru stic</w> 6
ru sh</w> 6
il ,</w> 6
wo ven</w> 6
ac a</w> 6
ac el 6
ac ular</w> 6
ac cep 6
ac robat 6
si mul 6
si cos</w> 6
po un 6
po ts</w> 6
po ps</w> 6
ut ens 6
wh is 6
wh ist 6
wh ere.</w> 6
is sor 6
is mo.</w> 6
me g 6
ol o</w> 6
ol hos.</w> 6
ol ive</w> 6
be ag 6
be ads</w> 6
li p 6
li c</w> 6
li on</w> 6
li qu 6
li da</w> 6
li me</w> 6
jo y</w> 6
jo gar 6
jo ckeys</w> 6
op ini 6
de u</w> 6
de al 6
de bri 6
gu ys,</w> 6
we ap 6
men os</w> 6
hor n.</w> 6
di vi 6
di es.</w> 6
di ving.</w> 6
as si 6
as king</w> 6
as semb 6
rou pas 6
car ga</w> 6
car ro,</w> 6
car dig 6
car eta.</w> 6
ne ws</w> 6
ne cess 6
ti v 6
ta do,</w> 6
per gun 6
per mane 6
le ão</w> 6
le gging</w> 6
le gs.</w> 6
out ,</w> 6
out ra,</w> 6
mp y</w> 6
ado rá 6
itt y</w> 6
bl in 6
sent ado.</w> 6
sent ados.</w> 6
sent ados,</w> 6
vest ,</w> 6
pre ten 6
pre tos,</w> 6
pre cis 6
gra des</w> 6
us ly</w> 6
ing ly</w> 6
for ming</w> 6
for mas</w> 6
cor te</w> 6
cor re.</w> 6
cor tam</w> 6
ci gar</w> 6
ap aix 6
ap ples</w> 6
con sol 6
con segue</w> 6
con venti 6
con fetti</w> 6
ant e 6
mo ther,</w> 6
mo hawk</w> 6
mo ped.</w> 6
su pri 6
su jo</w> 6
tra sh.</w> 6
tra ins</w> 6
res s.</w> 6
res id 6
res pira 6
vi go 6
vi sor</w> 6
ai ming</w> 6
ai red,</w> 6
ei ra,</w> 6
ei ras,</w> 6
cachor ros.</w> 6
cachor ro,</w> 6
lar .</w> 6
mar ri 6
mar ina.</w> 6
bu z 6
fi la.</w> 6
cu ps.</w> 6
cu ida</w> 6
no t 6
jov ens,</w> 6
da mag 6
bi gorn 6
te x</w> 6
te ma</w> 6
te ar</w> 6
te má 6
te ddy</w> 6
pi a.</w> 6
pi lar</w> 6
bol so</w> 6
pa co 6
ros - 6
garo ta,</w> 6
vesti do,</w> 6
her e</w> 6
mer ry- 6
dres ses.</w> 6
brin d 6
des vi 6
des cas 6
des carregando</w> 6
des conhe 6
des orden 6
wa ff 6
sho wer</w> 6
sho uting</w> 6
calç ando</w> 6
bro s.</w> 6
bro ad</w> 6
pra to.</w> 6
ter ra,</w> 6
ter no,</w> 6
ba bly</w> 6
pin ce 6
pin tam</w> 6
cas h</w> 6
cas es</w> 6
man equi 6
boar d,</w> 6
boar ds.</w> 6
pro pped</w> 6
pro bably</w> 6
colo cadas</w> 6
colo cados</w> 6
pr inc 6
amar ra</w> 6
amar rar</w> 6
ve la.</w> 6
ve iro</w> 6
ve z.</w> 6
hi d 6
hi ke</w> 6
hi ja 6
fe male,</w> 6
ser em</w> 6
ser ies</w> 6
skat ing.</w> 6
he 's</w> 6
he art.</w> 6
bri l 6
bri ght 6
bri desmai 6
sal on.</w> 6
sal tador</w> 6
pos es.</w> 6
back ground,</w> 6
mu çulman 6
tur key</w> 6
bran ch.</w> 6
ex post 6
ex uber 6
mon tados</w> 6
shor ter</w> 6
of fe 6
of íci 6
of iciais</w> 6
av a.</w> 6
ck - 6
tal l,</w> 6
culo ,</w> 6
ge e</w> 6
ge om 6
pare des.</w> 6
pare cida</w> 6
pu zz 6
pu shed</w> 6
qui os 6
tri o</w> 6
tri ste</w> 6
tri bo</w> 6
clo wns</w> 6
jack ets.</w> 6
gla ci 6
pal est 6
sa u 6
sa un 6
sa us 6
sa ge</w> 6
multi coloridas</w> 6
multi coloridos</w> 6
roup ão</w> 6
cer imon 6
tu ral</w> 6
tu rist 6
tu ba</w> 6
por co</w> 6
por table</w> 6
rin k</w> 6
tor as</w> 6
sw ing 6
go at</w> 6
go wn</w> 6
fun d 6
pequen o.</w> 6
hin e</w> 6
cav anha 6
fiel ds</w> 6
oran ges</w> 6
can s.</w> 6
can op 6
can vas.</w> 6
list er</w> 6
der ed</w> 6
der s,</w> 6
lu zes.</w> 6
met ro</w> 6
cap tura</w> 6
hand held</w> 6
hand rail.</w> 6
fil ho 6
fil mando</w> 6
obser ve.</w> 6
che cando</w> 6
fac e,</w> 6
fac e- 6
band ,</w> 6
band a,</w> 6
dd ler</w> 6
ben d</w> 6
caval ete</w> 6
caval gam</w> 6
sen ior</w> 6
gras ping</w> 6
ban k.</w> 6
ban quin 6
ban ana</w> 6
ban cada</w> 6
ban ners</w> 6
smil ing,</w> 6
cli ma</w> 6
sun dress</w> 6
dur as</w> 6
sc rubs</w> 6
sc issor 6
ati rar</w> 6
vo am</w> 6
vo cal 6
prepar ed</w> 6
tent ar</w> 6
tent ativa</w> 6
gi ra 6
fri a</w> 6
cou ch,</w> 6
cou ple,</w> 6
camer as.</w> 6
adul tos.</w> 6
adul ts,</w> 6
cre ates</w> 6
sist ema</w> 6
pat os</w> 6
pat rio 6
moto queiros</w> 6
pol í 6
pol it 6
pol iti 6
dis put 6
sto ck 6
sto re,</w> 6
sto op</w> 6
mã es</w> 6
ki ds.</w> 6
ki ds,</w> 6
oth er's</w> 6
pon do</w> 6
pon tas</w> 6
pon cho</w> 6
spe cial</w> 6
com un 6
aci ma.</w> 6
escu ra,</w> 6
pain t.</w> 6
ff s</w> 6
surf ing.</w> 6
surf ando.</w> 6
cic lismo</w> 6
fla ut 6
fla mes</w> 6
pur ple,</w> 6
vol ante</w> 6
boo gie</w> 6
compet it 6
compet ido 6
fen ce,</w> 6
climb ers</w> 6
lut ar</w> 6
sub mer 6
sub merg 6
tow er.</w> 6
blo cks.</w> 6
tro cando</w> 6
tro mb 6
tro mbon 6
jan elas.</w> 6
fru stra 6
peg am</w> 6
segu rada</w> 6
snowboar ding.</w> 6
ste e 6
má tica.</w> 6
t- shirt.</w> 6
moviment o.</w> 6
gol pe</w> 6
chin ês.</w> 6
slee ve</w> 6
slee ves</w> 6
dr ying</w> 6
esp el 6
esp adas</w> 6
part itura</w> 6
gr y</w> 6
gr and</w> 6
gr itando.</w> 6
flow ery</w> 6
stu mp.</w> 6
cont est 6
sof a.</w> 6
pes ada</w> 6
pes ado.</w> 6
pes cando.</w> 6
fu rio 6
bor rada</w> 6
quin s</w> 6
cros sed.</w> 6
len gth</w> 6
fli p.</w> 6
pil es</w> 6
pil e.</w> 6
pil lows.</w> 6
indi an</w> 6
motociclet as.</w> 6
most rada</w> 6
cell phones.</w> 6
cell phone,</w> 6
bow s</w> 6
bow tie</w> 6
cha ve</w> 6
cast le.</w> 6
kic k.</w> 6
kic ked</w> 6
pres u 6
pres sion 6
americ anos</w> 6
cigar ros</w> 6
ski es</w> 6
water ing</w> 6
reuni da</w> 6
grass y,</w> 6
pan e</w> 6
pan que 6
pan ha</w> 6
mor der</w> 6
patin ação.</w> 6
grand es.</w> 6
fl ying.</w> 6
ke y.</w> 6
long ,</w> 6
caf é,</w> 6
prote ger</w> 6
prote ção,</w> 6
esco lar 6
esco teiros</w> 6
ín ti 6
nad am</w> 6
machin ery</w> 6
xadre z.</w> 6
fantasi ada</w> 6
scar f.</w> 6
produ to</w> 6
produ ce.</w> 6
produ cts</w> 6
smo ke.</w> 6
mag ro</w> 6
mag ni 6
pri ght</w> 6
pri miti 6
arti sts</w> 6
laugh s.</w> 6
anti qu 6
anti ga</w> 6
Amer ica.</w> 6
scoo ters.</w> 6
vis it 6
exam ine</w> 6
bel as</w> 6
bel ts</w> 6
oper ated</w> 6
clar a.</w> 6
relax es</w> 6
new lywed</w> 6
paper work.</w> 6
cra tes</w> 6
pad .</w> 6
pad s</w> 6
pit ch 6
pit ching</w> 6
lanç amento</w> 6
bun gee</w> 6
cole gas</w> 6
plan íci 6
ey es.</w> 6
carri age.</w> 6
cano es</w> 6
cano e.</w> 6
beauti ful 6
tou ro.</w> 6
fin e</w> 6
fin d</w> 6
apro n.</w> 6
gril ls</w> 6
ach ed</w> 6
super mercado</w> 6
wheel er</w> 6
wheel chair.</w> 6
nu a</w> 6
nu n</w> 6
deser ted</w> 6
deser ta.</w> 6
joelh eiras</w> 6
fore ground,</w> 6
celul ar,</w> 6
ze bra</w> 6
chei os</w> 6
team s,</w> 6
pilo tando</w> 6
quar te 6
glo ve.</w> 6
desen ha</w> 6
encost ados</w> 6
cois as.</w> 6
har bor.</w> 6
buck ets.</w> 6
she et.</w> 6
bru ç 6
aqu ário</w> 6
present .</w> 6
present es</w> 6
under ground</w> 6
hal lo 6
macac o</w> 6
Con ey</w> 6
inclu i</w> 6
whit e 6
land ,</w> 6
land s</w> 6
forma to</w> 6
forma tion.</w> 6
kitch en,</w> 6
near ly</w> 6
bronze ada</w> 6
spra y.</w> 6
pássar os.</w> 6
Co ca</w> 6
decora ções</w> 6
ffe l</w> 6
ast rona 6
esquer do</w> 6
but ch 6
dançar inas</w> 6
loi ra.</w> 6
cruz ados.</w> 6
positi on</w> 6
estran ha.</w> 6
femin ino.</w> 6
squ ir 6
squ ad</w> 6
anima da</w> 6
id ên 6
tap etes</w> 6
spo t</w> 6
refle ction</w> 6
lapto p,</w> 6
dest e</w> 6
dest ino.</w> 6
condu ctor</w> 6
condu cting</w> 6
sp lit</w> 6
sp ace</w> 6
grel h 6
elétri co</w> 6
elétri co.</w> 6
nati va</w> 6
dro pping</w> 6
low er</w> 6
roller skates</w> 6
molh ado.</w> 6
palha ç 6
agach ados</w> 6
busin ess 6
lan e.</w> 6
Wor k 6
Wor ker</w> 6
remo ve</w> 6
barri ca 6
barri l.</w> 6
cross - 6
gat os</w> 6
gat o.</w> 6
curv ando</w> 6
equili bra 6
check ers</w> 6
check out</w> 6
objec ts.</w> 6
imp or 6
Car ros</w> 6
lix eira.</w> 6
craf ting</w> 6
craf ts.</w> 6
rif le.</w> 6
pira ta</w> 6
pira te</w> 6
fra med</w> 6
char uto</w> 6
barre l</w> 6
high way.</w> 6
dread s</w> 6
pí er.</w> 6
advers ário.</w> 6
cup cakes</w> 6
experi ment</w> 6
tron co.</w> 6
roof top</w> 6
os sos</w> 6
Mar ket.</w> 6
elev ada</w> 6
elev ated</w> 6
apoi ando</w> 6
afa st 6
chor a</w> 6
moun ted</w> 6
pun ching</w> 6
Mo to 6
exter ior</w> 6
hospit al,</w> 6
sco oping</w> 6
Lon g 6
chal len 6
andai mes.</w> 6
apart amento</w> 6
vas o</w> 6
Fo od</w> 6
monit or.</w> 6
monit ores</w> 6
fazen da</w> 6
port ão.</w> 6
star t.</w> 6
star ring</w> 6
somb ras.</w> 6
termin al.</w> 6
cabel ei 6
magaz ines.</w> 6
exerc ising</w> 6
alinh am</w> 6
dig itando</w> 6
aer o 6
til e.</w> 6
Be auti 6
estendi dos.</w> 6
sprink ler.</w> 6
lic ks</w> 6
Che v 6
hot dogs</w> 6
prate ada.</w> 6
prate ado.</w> 6
muse um</w> 6
pup pet</w> 6
video game.</w> 6
flori da</w> 6
levanta r</w> 6
á- lo</w> 6
á- lo.</w> 6
To yota</w> 6
To ddler</w> 6
red -h 6
red head</w> 6
person agem</w> 6
person nel</w> 6
mochi las,</w> 6
market place</w> 6
rai sed.</w> 6
oc cu 6
oc cur 6
kni fe</w> 6
estre ita.</w> 6
fashi on 6
store fron 6
caucasi ano</w> 6
aconte cendo.</w> 6
opost o.</w> 6
enfer meira</w> 6
cient ista</w> 6
mob ili 6
comple xo</w> 6
borrif ada</w> 6
organi z 6
organi zando</w> 6
jale cos</w> 6
ógi co.</w> 6
toma m</w> 6
shado w</w> 6
desig ns</w> 6
night time.</w> 6
esti ves 6
monu ment</w> 6
monu ment.</w> 6
tromp ete.</w> 6
ornament ado.</w> 6
semelh antes</w> 6
demonstra ção</w> 6
De ere</w> 6
motoriz ada.</w> 6
parachut e.</w> 6
esfreg a</w> 6
wra ps</w> 6
comer cial</w> 6
coast er</w> 6
separ ando</w> 6
mix er.</w> 6
patro cin 6
rúg bi 6
McDonal ds.</w> 6
ais sance</w> 6
lanc honete.</w> 6
instal ando</w> 6
ergu em</w> 6
wea ther.</w> 6
concent ra</w> 6
materi ais</w> 6
pára-que das.</w> 6
lâ mina</w> 6
Cor redores</w> 6
merce aria</w> 6
meio- fio.</w> 6
mini - 6
mini ature</w> 6
chain saw.</w> 6
Olymp ics.</w> 6
dobrá vel</w> 6
dobrá vel.</w> 6
neighbor hood</w> 6
hamb ur 6
maç ã</w> 6
maç ãs</w> 6
diz em</w> 6
pier cings</w> 6
bab ador</w> 6
board walk.</w> 6
eleg antes</w> 6
relógi o.</w> 6
lavand eria</w> 6
começ ar.</w> 6
ceremon y</w> 6
ceremon ial</w> 6
abaix a</w> 6
abaix ando</w> 6
hun ched</w> 6
legg ed</w> 6
quadri cu 6
travesse i 6
universit ário</w> 6
mis sing</w> 6
rema m</w> 6
rema dores</w> 6
deci de</w> 6
fran go</w> 6
pist ola</w> 6
empres ário</w> 6
borbo let 6
taref a</w> 6
sar is</w> 6
Am éri 6
Mus lim</w> 6
Caf e</w> 6
Caf e.</w> 6
libr ary</w> 6
fix es</w> 6
fea ther</w> 6
fea thered</w> 6
Pedest res</w> 6
colum ns.</w> 6
sign ,</w> 6
grafit ada.</w> 6
impres sion 6
congreg ate</w> 6
blea chers.</w> 6
clut ching</w> 6
põ e.</w> 6
trol ley</w> 6
Ven de 6
informa ções</w> 6
arco- íri 6
stro ke</w> 6
lade ada</w> 6
shap e</w> 6
open - 6
anci ent</w> 6
garç om</w> 6
derru bar</w> 6
theat er</w> 6
chines as</w> 6
bagpi pes</w> 6
bagpi pes.</w> 6
mouth ,</w> 6
blanket s</w> 6
blanket s.</w> 6
binocul ars.</w> 6
scal ing</w> 6
Tou rists</w> 6
espe ci 6
rib bon 6
palmei ra.</w> 6
palmei ras.</w> 6
employ ees</w> 6
orient ais</w> 6
almof ada</w> 6
almof adas</w> 6
charac ter</w> 6
charac ters</w> 6
tree -lined</w> 6
fei x 6
fare ja</w> 6
arca de.</w> 6
lamb e</w> 6
olímp i 6
bebe dou 6
tech ni 6
ofic ina</w> 6
stoma ch.</w> 6
abóbo ra</w> 6
snack .</w> 6
favor ite</w> 6
montanha-russ a.</w> 6
elabora te</w> 6
She pherd</w> 6
coro a</w> 6
cache ados</w> 6
elá stica.</w> 6
carros sel.</w> 6
publ ic.</w> 6
wood land</w> 6
blond-h air.</w> 6
chop sticks.</w> 6
panor âmica</w> 6
gravet os</w> 6
teamma tes</w> 6
jardin agem.</w> 6
Arti sta</w> 6
conveni ence</w> 6
suppor t</w> 6
ses são</w> 6
Hol lister</w> 6
yar n</w> 6
with in</w> 6
rust y</w> 6
ruiv os</w> 6
accompani ed</w> 6
pock et.</w> 6
pratele iras</w> 6
femal es,</w> 6
derra ma</w> 6
construí da</w> 6
pillo w.</w> 6
comemo ram</w> 6
excite dly</w> 6
rodovi a.</w> 6
cinegra fista</w> 6
agra dá 6
py rami 6
iPo d.</w> 6
san gue</w> 6
Fa ther</w> 6
Fam ily</w> 6
Hallo ween</w> 6
Oba ma</w> 6
stir ring</w> 6
trash can</w> 6
featu res</w> 6
tripo d.</w> 6
sab ão.</w> 6
drive way</w> 6
alegri a</w> 6
butter fly</w> 6
transport ation.</w> 6
autum n</w> 6
Milit ary</w> 6
tul i 6
mitt ens</w> 6
scient ist</w> 6
vele iro</w> 6
Je wish</w> 6
cama das</w> 6
tooth brush.</w> 6
corpul ento</w> 6
respe cti 6
noiv a.</w> 6
manob ra.</w> 6
faci ais</w> 6
trump et.</w> 6
sandwi ch.</w> 6
shaw l</w> 6
well- dressed</w> 6
arrem esso.</w> 6
impro vis 6
Foo tball</w> 6
azul-petróle o</w> 6
sabore ando</w> 6
vacuu ming</w> 6
establish ment.</w> 6
afterno on.</w> 6
ware house.</w> 6
SU V</w> 6
Mú sicos</w> 6
Yama ha</w> 6
escom bros.</w> 6
macarr ão</w> 6
mainten ance</w> 6
urs inho</w> 6
outfiel der</w> 6
conne cted</w> 6
fren ch</w> 6
desfi la 6
palaf itas</w> 6
harvest ing</w> 6
aquari um</w> 6
destin ation.</w> 6
exercit ando</w> 6
conteú do</w> 6
dinosa ur</w> 6
KitchenA id</w> 6
tug-of- war</w> 6
Sh ir 6
esfar rap 6
encont ro</w> 6
entarde cer.</w> 6
sem- teto</w> 6
assen to</w> 6
cortin as</w> 6
expan se</w> 6
venu e.</w> 6
metro polit 6
trot ting</w> 6
trof éu</w> 6
troph y</w> 6
embo ra</w> 6
supervi sion 6
Pilo to</w> 6
Europe an</w> 6
Protest ers</w> 6
suppli es.</w> 6
Snow boarder</w> 6
tart aru 6
scat tered</w> 6
samu ra 6
Nin tendo</w> 6
was her</w> 6
Danç ar 6
Gru pos</w> 6
&amp ; 6
thum b</w> 6
utens íli 6
beag le</w> 6
roupas ,</w> 6
apaix on 6
damag ed</w> 6
bigorn a.</w> 6
merry- go- 6
pince l</w> 6
quios que</w> 6
politi cal</w> 6
trombon e.</w> 6
Beauti ful</w> 6
arco-íri s.</w> 6
b ê 5
b s.</w> 5
b in.</w> 5
b y,</w> 5
a k 5
a "</w> 5
a il 5
a corr 5
a eri 5
a parece</w> 5
a ba</w> 5
a wn 5
a ward</w> 5
a ção,</w> 5
r ,</w> 5
c s.</w> 5
c ler 5
c ts.</w> 5
o i 5
o wn 5
o so.</w> 5
- b 5
- p 5
- out</w> 5
- lo.</w> 5
- o- 5
p ag 5
p s,</w> 5
p anda</w> 5
p ais.</w> 5
i P 5
i so 5
i os</w> 5
i des</w> 5
i ra,</w> 5
i ras.</w> 5
i ors</w> 5
i sta.</w> 5
l entes</w> 5
l y,</w> 5
l ish</w> 5
t s 5
t it 5
t 's</w> 5
t es,</w> 5
t ing,</w> 5
t less</w> 5
t adas.</w> 5
m op 5
m inha</w> 5
m orn 5
m ops</w> 5
m mage</w> 5
j e</w> 5
j avel 5
j olo</w> 5
e a 5
e o 5
e f</w> 5
e y.</w> 5
e gg 5
e jando</w> 5
s l 5
s ;</w> 5
s ó 5
s ic 5
s ão.</w> 5
s pen 5
s nap</w> 5
n ,</w> 5
n a,</w> 5
g n</w> 5
g ros 5
g ados</w> 5
g ating</w> 5
u re 5
u mo 5
u pright</w> 5
f - 5
f oun 5
f icial</w> 5
f ãs.</w> 5
d y.</w> 5
d run 5
d ele 5
d ado.</w> 5
d les</w> 5
d ões</w> 5
d ral</w> 5
d die</w> 5
v ão.</w> 5
v anta 5
h .</w> 5
h ut</w> 5
h aired</w> 5
R O 5
R en 5
R ac 5
R us 5
R ace</w> 5
ê m</w> 5
z y</w> 5
z er 5
z ens</w> 5
V is 5
V oc 5
w in</w> 5
w on</w> 5
w ir 5
w and 5
w ning</w> 5
ó ,</w> 5
ó le 5
1 .</w> 5
1 0 5
0 's</w> 5
A th 5
A pp 5
F C</w> 5
S par 5
S mo 5
S hi 5
S por 5
S pon 5
S inger</w> 5
k e,</w> 5
k ite.</w> 5
k a- 5
D i 5
D anc 5
D irt</w> 5
P á 5
P it 5
P et 5
P op 5
P esca 5
é - 5
é poca</w> 5
M C 5
M er 5
C E</w> 5
C al 5
C ap 5
C om</w> 5
C lose</w> 5
ô ma 5
G e 5
G y 5
G roup 5
G entle 5
B anda</w> 5
H e</w> 5
H er 5
H ap 5
T u 5
T er 5
T ur 5
U r 5
E le</w> 5
E spec 5
E stas</w> 5
y st 5
y on.</w> 5
y scap 5
W e 5
W all</w> 5
I N 5
I ce</w> 5
I tal 5
Y oun 5
L os</w> 5
J eng 5
K id</w> 5
K itty</w> 5
O R 5
O ver 5
O hi 5
O ce 5
in ing</w> 5
in o,</w> 5
in os,</w> 5
in formal</w> 5
in acab 5
an a 5
an ,</w> 5
an sw 5
an gry</w> 5
ar mo 5
ar ly</w> 5
ar ch.</w> 5
ar reg 5
ar med</w> 5
es pon 5
es verde 5
es gui 5
en d.</w> 5
en fil 5
en char 5
en via</w> 5
en rolando</w> 5
co u</w> 5
co lon 5
co çando</w> 5
er vas</w> 5
ho l</w> 5
ho st 5
ho re.</w> 5
re al</w> 5
re tor 5
re cit 5
re pel 5
re pó 5
re turns</w> 5
re hear 5
ca em</w> 5
ca po 5
ca pr 5
ca ve 5
ca usa</w> 5
ca bras</w> 5
ro n</w> 5
ro da.</w> 5
ro stos.</w> 5
ro pes.</w> 5
it ação</w> 5
ma j 5
ma in</w> 5
ma il 5
ma s,</w> 5
ma la.</w> 5
ma ture</w> 5
ma sti 5
ma kes 5
th y</w> 5
th re 5
est ra,</w> 5
est ima 5
est ôma 5
al s.</w> 5
al is 5
al her 5
al tas.</w> 5
st es</w> 5
st e.</w> 5
st ars</w> 5
st ores.</w> 5
st ain 5
la bra 5
la st</w> 5
la te.</w> 5
la ta.</w> 5
la sso</w> 5
do m</w> 5
do no</w> 5
do ts</w> 5
do ce.</w> 5
do uro</w> 5
do ctors</w> 5
ra va</w> 5
ra das.</w> 5
ra ke.</w> 5
ra so.</w> 5
ra dio</w> 5
ra bb 5
el s.</w> 5
ri ans.</w> 5
un happy</w> 5
un finished</w> 5
lo ck</w> 5
lo ja,</w> 5
ir m 5
ir rit 5
ent ada</w> 5
ent ram</w> 5
qu á 5
qu em</w> 5
qu er 5
qu ent 5
qu ain 5
at t 5
at o.</w> 5
at ors</w> 5
at ting.</w> 5
at aque</w> 5
at ee</w> 5
at lé 5
at acando</w> 5
at hon</w> 5
bo ce 5
so a 5
so red</w> 5
so co</w> 5
so pa</w> 5
so und</w> 5
ch as.</w> 5
ch im 5
ch amp 5
ch aves</w> 5
ch unk</w> 5
et ing</w> 5
par k 5
par ado.</w> 5
par alle 5
or es 5
or la.</w> 5
ad u 5
ad e,</w> 5
ad eira.</w> 5
ad icion 5
to n.</w> 5
to urnament.</w> 5
se d 5
se as 5
se co</w> 5
se ating</w> 5
pe go 5
pe aco 5
on ary</w> 5
cam p</w> 5
cam ar 5
cam elos</w> 5
cam pers</w> 5
ru i 5
mul a</w> 5
and amento.</w> 5
ac ci 5
ac tors</w> 5
si a</w> 5
po s.</w> 5
po ver 5
po king</w> 5
po te</w> 5
po bre</w> 5
po le,</w> 5
ut e</w> 5
ut ility</w> 5
is e.</w> 5
me ga 5
pla in</w> 5
ol as</w> 5
ol d,</w> 5
ol d- 5
ol ógico.</w> 5
be ,</w> 5
be e</w> 5
be at</w> 5
be ar.</w> 5
be ers.</w> 5
be er,</w> 5
sh ,</w> 5
sh am 5
sh ady</w> 5
am ing</w> 5
am pl 5
am ba</w> 5
jo elho.</w> 5
jo alher 5
op óli 5
de pic 5
de 's</w> 5
de vol 5
de fici 5
de dilha</w> 5
we i 5
we apon 5
men us</w> 5
bal é</w> 5
di g</w> 5
di ant 5
di sta</w> 5
di go</w> 5
di gs</w> 5
di gg 5
di lapid 5
as sor 5
car ve</w> 5
car ds</w> 5
car ved</w> 5
car ous 5
car etas.</w> 5
car angue 5
ne e 5
ne vo 5
ti gra 5
ti ro.</w> 5
ti vo</w> 5
ti ght 5
ti rada.</w> 5
ti ps.</w> 5
ti jolo</w> 5
fo g</w> 5
ta u 5
ta ke 5
per u</w> 5
per hap 5
per ched</w> 5
per na.</w> 5
le g 5
le d.</w> 5
le go</w> 5
le 's</w> 5
le ast</w> 5
out stret 5
ado ra 5
play ing,</w> 5
sent ado,</w> 5
vest s.</w> 5
anc e,</w> 5
us o</w> 5
for k</w> 5
for ne 5
for no.</w> 5
for med</w> 5
cor n.</w> 5
cor po.</w> 5
cor da,</w> 5
cor tina</w> 5
con so 5
con fe 5
con tas</w> 5
con segu 5
con temp 5
con vid 5
con figu 5
con tents</w> 5
mo e 5
mo ve 5
mo re.</w> 5
mo ven 5
mo ther.</w> 5
mo vem</w> 5
mo tion.</w> 5
mo thers</w> 5
su í 5
su ba 5
su jas</w> 5
su jos</w> 5
tra ck,</w> 5
res ping 5
vi rar</w> 5
vi gas</w> 5
vi vo.</w> 5
vi seira</w> 5
ei a.</w> 5
ei bol</w> 5
ei ro,</w> 5
loo k.</w> 5
cachor ros,</w> 5
cachor ros- 5
gar f 5
jog os</w> 5
jog ada.</w> 5
jog o,</w> 5
jog ou</w> 5
jog ador.</w> 5
jog ging.</w> 5
mar ,</w> 5
mar t</w> 5
mar sh 5
bu ggy</w> 5
bu sto</w> 5
fi ed</w> 5
fi os.</w> 5
cu b 5
let .</w> 5
let os</w> 5
no tic 5
no vas</w> 5
no vos</w> 5
cal l</w> 5
da ção</w> 5
sk ull</w> 5
ou .</w> 5
bi b</w> 5
bi g,</w> 5
te mpo 5
te cidos</w> 5
pi ed</w> 5
pi ano,</w> 5
ran t</w> 5
pa uses</w> 5
pa store 5
her ding</w> 5
her men</w> 5
pas se</w> 5
pas sed</w> 5
pas sion 5
dres sing</w> 5
brin cos</w> 5
des o 5
des ks</w> 5
des calças</w> 5
wa ist</w> 5
wa ving.</w> 5
sho es 5
bro w</w> 5
bar man</w> 5
bar ro.</w> 5
roun ding</w> 5
roun d.</w> 5
ter 's</w> 5
ter rain</w> 5
ss ico</w> 5
ba s.</w> 5
ba th.</w> 5
ba ked</w> 5
ba bies</w> 5
je ep</w> 5
run -down</w> 5
pin o</w> 5
pin striped</w> 5
pin ned</w> 5
cas ino</w> 5
cas amento,</w> 5
pul seira</w> 5
mal u 5
man chado</w> 5
uni denti 5
pro vi 5
pro cesso</w> 5
colo cado</w> 5
colo cada</w> 5
pr é- 5
mb o</w> 5
mb er</w> 5
ment a</w> 5
hi dro 5
hi ft</w> 5
flo ati 5
flo wing</w> 5
ser vic 5
skat istas</w> 5
he arts</w> 5
bri r</w> 5
bri ck- 5
bri de's</w> 5
jump suits</w> 5
sal on</w> 5
back hand</w> 5
back lit</w> 5
back ward</w> 5
back seat</w> 5
back hoe</w> 5
yel ling</w> 5
mu g</w> 5
mu le</w> 5
mu g.</w> 5
chapé us,</w> 5
bran ches</w> 5
bran ches.</w> 5
mes mas</w> 5
ni bbl 5
ex po 5
ex terno</w> 5
mon o</w> 5
mon k</w> 5
mon ge</w> 5
mon tar</w> 5
mon tadas</w> 5
mon ey.</w> 5
mon opóli 5
rest o</w> 5
cab in 5
cab le</w> 5
tal as</w> 5
tal ento</w> 5
tal ent</w> 5
ge - 5
ge lada.</w> 5
ge Bob</w> 5
pu s.</w> 5
pu la.</w> 5
pu pp 5
ce mit 5
qui .</w> 5
snow ball</w> 5
snow capped</w> 5
tri pé.</w> 5
tri mming</w> 5
sur ge 5
sur fistas</w> 5
clo wn.</w> 5
crow ds</w> 5
crow d,</w> 5
pal ha.</w> 5
pal estra</w> 5
sa em</w> 5
multi color</w> 5
cer cam</w> 5
cer âmica.</w> 5
tu gging</w> 5
tu bes</w> 5
tu mbling</w> 5
reg a</w> 5
tor ce 5
tor cendo.</w> 5
sw ing,</w> 5
bas cul 5
que da</w> 5
que bra</w> 5
que brando</w> 5
go atee</w> 5
fun .</w> 5
col é 5
col chão</w> 5
pic o</w> 5
ven t</w> 5
ven ue</w> 5
pequen as.</w> 5
du cks</w> 5
du mp</w> 5
cav e.</w> 5
tre ino</w> 5
tre cho</w> 5
cin tura</w> 5
cin tura.</w> 5
can tores</w> 5
can yon.</w> 5
cur r 5
cur to,</w> 5
cur ved</w> 5
lu va.</w> 5
lu gar.</w> 5
met ros</w> 5
cap it 5
hand - 5
hand ling</w> 5
fil as</w> 5
fil ls</w> 5
fil ha.</w> 5
fil hos.</w> 5
fil magem</w> 5
fac tory</w> 5
band s</w> 5
caval g 5
caval inho</w> 5
sen .</w> 5
tan e 5
tan t</w> 5
tan gular</w> 5
ban n 5
ban ho.</w> 5
ban anas</w> 5
tr ens</w> 5
cli ente.</w> 5
sc ru 5
sc ant 5
beb ês.</w> 5
gi o</w> 5
gi z.</w> 5
fri a.</w> 5
fri ca</w> 5
grama do,</w> 5
pl ush</w> 5
bra cel 5
fa ther 5
cou t</w> 5
the med</w> 5
constru cted</w> 5
adul ta</w> 5
adul ts.</w> 5
carreg ada</w> 5
carreg ava</w> 5
ici an</w> 5
esca da,</w> 5
pat rul 5
fer i 5
fer ro</w> 5
pol ka- 5
dis k</w> 5
win ding</w> 5
ga y</w> 5
ga so 5
ga ção.</w> 5
ga ita.</w> 5
assist ing</w> 5
assist ant</w> 5
jun tas,</w> 5
vel eiros</w> 5
Asi á 5
instru ções</w> 5
instru cting</w> 5
dire cts</w> 5
work man</w> 5
capac ete.</w> 5
cober tor 5
pon y</w> 5
stri de</w> 5
stri ke</w> 5
stri pe</w> 5
com e.</w> 5
com er.</w> 5
com mun 5
var ying</w> 5
surf ers</w> 5
garot inhas</w> 5
garot inha,</w> 5
skateboar ding.</w> 5
cic lo.</w> 5
pis a</w> 5
fla t 5
fla g 5
fla t</w> 5
fla ming</w> 5
bat om</w> 5
pur chase</w> 5
vol eibol</w> 5
ocean ,</w> 5
chu veiro</w> 5
ha ul 5
ha bil 5
dar do</w> 5
emp inando</w> 5
baix a.</w> 5
ket ball</w> 5
sel va</w> 5
sel va.</w> 5
ali zed</w> 5
banc a</w> 5
lut ando.</w> 5
sol d</w> 5
sol da</w> 5
sing ing,</w> 5
sub urban</w> 5
rox os</w> 5
rox as.</w> 5
colori r</w> 5
colori do,</w> 5
colori dos,</w> 5
sand ,</w> 5
blo ck.</w> 5
blo cos.</w> 5
blo wer</w> 5
blo cked</w> 5
blo sso 5
guar dando</w> 5
base man</w> 5
cai a 5
tro tando</w> 5
tê nis,</w> 5
jan ela,</w> 5
jan gada.</w> 5
dri f 5
dri vers</w> 5
segu ido</w> 5
-h aired,</w> 5
-h umo 5
colet iv 5
motor bike.</w> 5
bon es</w> 5
bon de.</w> 5
inc rí 5
em pol 5
color fully</w> 5
moviment ada,</w> 5
basket ball,</w> 5
gol a</w> 5
gol d.</w> 5
chin esa.</w> 5
instrument s,</w> 5
bag s,</w> 5
post - 5
post ura</w> 5
slee p</w> 5
cla p</w> 5
cho ra.</w> 5
cho que.</w> 5
árv ores,</w> 5
cloth es 5
part ying</w> 5
road side</w> 5
road side.</w> 5
cut u 5
cont rol 5
cont est.</w> 5
comput adores.</w> 5
tele fon 5
off ,</w> 5
sof t 5
sof t</w> 5
au x 5
au la,</w> 5
pes adas.</w> 5
pá s</w> 5
pá lida</w> 5
lean ed</w> 5
fu ma.</w> 5
raf ts</w> 5
florest al.</w> 5
cros s.</w> 5
cros sed</w> 5
Ho me 5
af fe 5
len do.</w> 5
na ils</w> 5
fli ght.</w> 5
pil lar</w> 5
mark er.</w> 5
guitar rist 5
asiáti ca,</w> 5
motociclet a,</w> 5
pel u 5
temp lo</w> 5
temp esta 5
most rado</w> 5
most rados</w> 5
most arda</w> 5
bow ls.</w> 5
bow ling.</w> 5
over al 5
cha in.</w> 5
cozinh am</w> 5
rac ing.</w> 5
rela y</w> 5
inter act</w> 5
gal lo 5
gal inha</w> 5
americ anas.</w> 5
water way</w> 5
mor dis 5
mor dida</w> 5
patin ar</w> 5
caix as.</w> 5
sai l</w> 5
partic ul 5
dra g</w> 5
ênci as.</w> 5
long a.</w> 5
partici pant 5
limp ador</w> 5
xi .</w> 5
aber tas.</w> 5
aber ta,</w> 5
nad adora</w> 5
hoo di 5
ref let 5
machin es</w> 5
fantasi ados</w> 5
estacion ados.</w> 5
rail s</w> 5
tograp h 5
produ to.</w> 5
produ ct</w> 5
sué teres</w> 5
molet ons</w> 5
box e.</w> 5
box ers</w> 5
bes ides</w> 5
arti st 5
arti stic</w> 5
kne e.</w> 5
anti que</w> 5
diri gi 5
mat es.</w> 5
mat tress</w> 5
fol low</w> 5
vis u 5
vis íveis</w> 5
stra w 5
bel l</w> 5
bel ly</w> 5
sha ke</w> 5
clar as</w> 5
art work</w> 5
frien dly</w> 5
din er.</w> 5
todd ler.</w> 5
paper work</w> 5
especta dor</w> 5
cra v 5
cra te</w> 5
cra dles</w> 5
cra zy</w> 5
pad ded</w> 5
up set</w> 5
up ward</w> 5
up ward.</w> 5
pit ch.</w> 5
pit ores 5
lanç ador</w> 5
rock ,</w> 5
bun ny</w> 5
pró pri 5
plan k</w> 5
levant ada</w> 5
castan hos,</w> 5
fel tro</w> 5
ey es,</w> 5
rode ados</w> 5
bir d.</w> 5
amp li 5
brea ks</w> 5
brea ker</w> 5
fin al.</w> 5
diver te</w> 5
rit ual</w> 5
jorn ais.</w> 5
ach i</w> 5
super ior</w> 5
wheel chairs</w> 5
prin ts</w> 5
jerse ys.</w> 5
palet ó,</w> 5
tin ta.</w> 5
ze lador</w> 5
strol lers</w> 5
team 's</w> 5
pedest rian</w> 5
pedest rians.</w> 5
veí culos.</w> 5
glo ved</w> 5
bom bar 5
plat eia</w> 5
plat eia.</w> 5
ouvi r</w> 5
va ca 5
va cas</w> 5
va sos</w> 5
wi re.</w> 5
wi ping</w> 5
chi p 5
pape lada</w> 5
plá sti 5
ensolar ado,</w> 5
har p.</w> 5
har pa.</w> 5
har ness.</w> 5
youn g 5
she er</w> 5
she d.</w> 5
bott le,</w> 5
aqu i</w> 5
present ation.</w> 5
fire works</w> 5
proje ctor</w> 5
cri es</w> 5
inclu des</w> 5
river ,</w> 5
forma r</w> 5
forma tion</w> 5
news papers.</w> 5
dou rada</w> 5
dou rada.</w> 5
dou radas</w> 5
ilumin ação</w> 5
tatu agem.</w> 5
bronze ados</w> 5
come çando</w> 5
competiti ve</w> 5
don keys</w> 5
tatto o.</w> 5
decora ting</w> 5
abraç am.</w> 5
Indi a.</w> 5
pé talas</w> 5
feli zes</w> 5
bur ros</w> 5
gel eira.</w> 5
far m.</w> 5
mas sive</w> 5
later ais.</w> 5
No el,</w> 5
aliment ação</w> 5
loi ra,</w> 5
sold agem</w> 5
vaz io</w> 5
cau b 5
positi oned</w> 5
audi ência</w> 5
sm el 5
fing indo</w> 5
estran ho</w> 5
son ,</w> 5
anima damente</w> 5
difer entes,</w> 5
graffiti ed</w> 5
trá s,</w> 5
enor mes</w> 5
enor me.</w> 5
barbe iro</w> 5
barbe aria</w> 5
spo ts</w> 5
refei ções</w> 5
fres ca</w> 5
dun king</w> 5
ham mers</w> 5
escre vendo.</w> 5
rain ing.</w> 5
urban o</w> 5
complet ed</w> 5
complet ely</w> 5
gro wn</w> 5
low ered</w> 5
stret ch</w> 5
listra dos</w> 5
palha ço.</w> 5
pp er</w> 5
soz inho.</w> 5
tig re</w> 5
bubbl e.</w> 5
frent e,</w> 5
gig antes</w> 5
páti o,</w> 5
maraton a,</w> 5
vitrin es</w> 5
lan che.</w> 5
quei xo.</w> 5
barri er.</w> 5
barri ga</w> 5
barri ers.</w> 5
celebra ção</w> 5
trun k.</w> 5
acen am</w> 5
acen ando.</w> 5
acen dendo</w> 5
nat al.</w> 5
nat ural.</w> 5
Gu itar</w> 5
desfru ta</w> 5
discus sion.</w> 5
flutu ante.</w> 5
labora tory</w> 5
bit es</w> 5
apo ia</w> 5
camp fire.</w> 5
check ed</w> 5
pet als</w> 5
imp lo 5
ear phones</w> 5
AT M</w> 5
AT V.</w> 5
Car as</w> 5
aren a,</w> 5
casu ais</w> 5
balanc ed</w> 5
clou ds</w> 5
inclin ada.</w> 5
tack led</w> 5
mass agem</w> 5
bath tub</w> 5
gest ure</w> 5
Nat al,</w> 5
stun ts</w> 5
tradicion al.</w> 5
tradicion ais.</w> 5
fotógraf os</w> 5
sn aps</w> 5
barre n</w> 5
barre ls</w> 5
high way</w> 5
high chair.</w> 5
down hill</w> 5
máquin as.</w> 5
ph y 5
kar ao 5
advers ários</w> 5
heav yset</w> 5
tron cos</w> 5
grocer ies.</w> 5
inspe ct</w> 5
explo rando</w> 5
explo ring</w> 5
ima gem.</w> 5
mel anc 5
Mar athon</w> 5
itu de</w> 5
defen der</w> 5
vic tory</w> 5
conte m 5
exter no.</w> 5
expres sion</w> 5
expres sões</w> 5
expres sions</w> 5
circ le.</w> 5
fle x 5
boun ding</w> 5
chal k.</w> 5
dril ling</w> 5
wet suits</w> 5
anúnci os</w> 5
shin es</w> 5
scaff old</w> 5
apart amentos</w> 5
apart amentos.</w> 5
emerg es</w> 5
wil d 5
must ard</w> 5
lant ern</w> 5
fotograf a</w> 5
inspecion am</w> 5
mó vel.</w> 5
​​ de</w> 5
El mo 5
confer ence.</w> 5
moder no.</w> 5
moder na.</w> 5
gard ening</w> 5
mida ir,</w> 5
estendi dos</w> 5
cír culo.</w> 5
dol ls</w> 5
descalç os.</w> 5
prate ada</w> 5
colle cting</w> 5
scaffol d.</w> 5
acarici a</w> 5
via ja</w> 5
cliff ,</w> 5
spi ke</w> 5
str ing.</w> 5
str ings</w> 5
market ,</w> 5
decorati ons</w> 5
agar rar</w> 5
tamb ém.</w> 5
Le gos</w> 5
estrel as</w> 5
cuid am</w> 5
barb as</w> 5
procur a</w> 5
proximi dades</w> 5
tambo ur 5
dinh eiro.</w> 5
estre ito</w> 5
bush y</w> 5
police men</w> 5
aliz ar</w> 5
ambul ante.</w> 5
caucasi anos</w> 5
mun do</w> 5
mun ici 5
Ro de 5
Par ents</w> 5
oppon ent.</w> 5
terren o.</w> 5
dish es.</w> 5
pack age.</w> 5
mant ém</w> 5
ano ta 5
colar es</w> 5
caí do</w> 5
caí da</w> 5
caí das</w> 5
toma to</w> 5
sea food</w> 5
shado ws.</w> 5
deix a</w> 5
orel ha.</w> 5
ass ando</w> 5
projet or.</w> 5
camufla das</w> 5
ocup adas</w> 5
ocup ados</w> 5
japon ês</w> 5
japon esa</w> 5
spre ad.</w> 5
Pi zza</w> 5
Bi kers</w> 5
estú dio.</w> 5
carto on</w> 5
parachut e</w> 5
vasso uras</w> 5
vasso ura.</w> 5
lanter ns.</w> 5
mask ed</w> 5
atlet ismo.</w> 5
shel f</w> 5
tem per 5
mix er</w> 5
pren de</w> 5
scra t 5
patro ns</w> 5
fuma ça.</w> 5
transeun te</w> 5
recep ção</w> 5
recep tor</w> 5
rollerbla des</w> 5
arquiban cada</w> 5
arquiban cadas.</w> 5
ama ment 5
lanc es</w> 5
natu ral</w> 5
instal ling</w> 5
ergu idos.</w> 5
sorrident e.</w> 5
reclin es</w> 5
reclin a-se</w> 5
tut us</w> 5
fre ira</w> 5
attenti on.</w> 5
mens agem</w> 5
ascen ding</w> 5
wakeboar d.</w> 5
jewel ry.</w> 5
foot ball,</w> 5
quebra - 5
quebra do</w> 5
eleph ant.</w> 5
bande jas</w> 5
chain ed</w> 5
sinu ca</w> 5
aprove ita</w> 5
areno sa</w> 5
dobrá veis</w> 5
writ ing.</w> 5
hersel f.</w> 5
calçad ão.</w> 5
bab y,</w> 5
banh eira.</w> 5
tranç ado</w> 5
papel ão.</w> 5
interse ction</w> 5
nur se</w> 5
fan to 5
Es pon 5
rodo via</w> 5
ating ido</w> 5
despe ja</w> 5
bund led</w> 5
grá fico.</w> 5
Sol di 5
Sol dados</w> 5
ét nicas</w> 5
ét nicos</w> 5
espal hadas</w> 5
boul der</w> 5
focu s</w> 5
app le.</w> 5
app lies</w> 5
pist a,</w> 5
comfor ting</w> 5
anivers ário.</w> 5
barbecu ing</w> 5
gestic ulando</w> 5
profission al.</w> 5
sla cks</w> 5
Euro pa.</w> 5
intent ly.</w> 5
alon gando</w> 5
stack s</w> 5
body suit</w> 5
apag a</w> 5
pizz a.</w> 5
colun as.</w> 5
collar .</w> 5
wind breaker</w> 5
directi ons</w> 5
drag on</w> 5
estrang eira.</w> 5
advertise ments.</w> 5
engrax ate</w> 5
tas k</w> 5
trol ley.</w> 5
kn itt 5
informa tion</w> 5
arro z</w> 5
arro z.</w> 5
envi ando</w> 5
pea ks</w> 5
potter y.</w> 5
open ed</w> 5
garç onete</w> 5
day time.</w> 5
skil ls</w> 5
cep t</w> 5
go- cart</w> 5
high- fi 5
arbust o</w> 5
scal es</w> 5
arn ês.</w> 5
espe cial</w> 5
rib bon.</w> 5
begin ning</w> 5
cart ão</w> 5
legu mes.</w> 5
manti mentos.</w> 5
ofere ce</w> 5
ofere cendo</w> 5
pens ando</w> 5
sandal s.</w> 5
hudd led</w> 5
interess ante.</w> 5
wheelbar row</w> 5
gen gi 5
gli ding</w> 5
fei j 5
Sur fer</w> 5
caç amba</w> 5
lamacent a.</w> 5
meet ing</w> 5
bebe douro</w> 5
tigh tro 5
four - 5
note book.</w> 5
descen ding</w> 5
worl d.</w> 5
montanho sa.</w> 5
craw ling</w> 5
Sub way</w> 5
ax e.</w> 5
emo cion 5
situ ado</w> 5
slic ing</w> 5
né on</w> 5
hy dr 5
Gre yhound</w> 5
Hi gh</w> 5
Est á</w> 5
atten d 5
pedi r</w> 5
perten ces.</w> 5
strugg ling</w> 5
manh ã.</w> 5
publ ici 5
cerimôni a.</w> 5
regi stra 5
camera man</w> 5
blond-h air,</w> 5
watermel ons</w> 5
gravet os.</w> 5
teamma te.</w> 5
spot light</w> 5
Arti stas</w> 5
conveni ência.</w> 5
violon cel 5
equilíbri o.</w> 5
hisp ânica</w> 5
havai ano</w> 5
NY .</w> 5
Gra y</w> 5
yar n.</w> 5
arri ve.</w> 5
caver na</w> 5
cass ino.</w> 5
rav ina</w> 5
tobo água</w> 5
pratele ira</w> 5
violin ista</w> 5
pillo ws</w> 5
foli age.</w> 5
happ y,</w> 5
paraque das</w> 5
biquí ni 5
biquí nis</w> 5
scream ing</w> 5
scream ing.</w> 5
gaivo tas</w> 5
nature za</w> 5
nature za.</w> 5
concentra tes</w> 5
clá ssi 5
clá ssico</w> 5
lit er 5
emer ge</w> 5
ker chi 5
Bicyc list</w> 5
Ti me</w> 5
encontra r</w> 5
ril ha</w> 5
cham pan 5
amo stra</w> 5
asp hal 5
carica ture</w> 5
conge lado</w> 5
mobil e.</w> 5
track suit</w> 5
buff et</w> 5
agrí co 5
prêmi o</w> 5
sagu ão.</w> 5
torne io</w> 5
volun t 5
volun te 5
refres h 5
harmon ica.</w> 5
equest rian</w> 5
button -up</w> 5
lábi os</w> 5
manifest antes</w> 5
exhib iti 5
bisco itos.</w> 5
passers by.</w> 5
agasal ho</w> 5
eag erly</w> 5
sam ple</w> 5
spon sored</w> 5
Sw im 5
Cic list 5
Col le 5
Gr and 5
Ten nis</w> 5
Wel come</w> 5
enfeit es</w> 5
recreati onal</w> 5
logo tipo</w> 5
bear d,</w> 5
shar p</w> 5
decor ando</w> 5
corn er,</w> 5
tric ô</w> 5
helicop ter</w> 5
chup eta</w> 5
dribl a</w> 5
dribbl es</w> 5
flipera ma.</w> 5
guitarist ,</w> 5
smoo th</w> 5
Americ ans</w> 5
belong ings.</w> 5
fazendei ros.</w> 5
focinh eira</w> 5
namo rada</w> 5
estabele cimento</w> 5
gulosei ma</w> 5
már more.</w> 5
Bas ketball</w> 5
Lin da</w> 5
poss es 5
beg in</w> 5
pauz inhos.</w> 5
wash er.</w> 5
manne qu 5
hidr ante</w> 5
histori c</w> 5
turí stico</w> 5
turbul entas.</w> 5
gover n 5
musculo so</w> 5
knee- high</w> 5
hammo ck.</w> 5
escritóri os.</w> 5
croco di 5
extremi dade</w> 5
espanhol a</w> 5
sombrer o</w> 5
ukul ele</w> 5
Adolesc ente</w> 5
bamb a.</w> 5
igu ais</w> 5
idi o 5
sack s</w> 5
Ap ple</w> 5
Ara bi 5
Spee do</w> 5
Mac .</w> 5
US A</w> 5
Ele mentary</w> 5
Índi a.</w> 5
retro escavadeira</w> 5
rosto ,</w> 5
majo r</w> 5
staf f</w> 5
chap inhando</w> 5
tos sed</w> 5
sear ching</w> 5
pop corn</w> 5
marinh eiro</w> 5
amare las,</w> 5
exposi ção.</w> 5
offer ing</w> 5
citiz ens</w> 5
brai ded</w> 5
pône i</w> 5
companhi a</w> 5
activ ities</w> 5
arrange ment</w> 5
açou gu 5
principal mente</w> 5
memori al</w> 5
revez amento.</w> 5
pântan o.</w> 5
jaz z</w> 5
sár is</w> 5
hen na</w> 5
Estud antes</w> 5
revist as.</w> 5
raz or.</w> 5
sex y</w> 5
sees a 5
acel era</w> 5
simul tane 5
debri s.</w> 5
assi m</w> 5
assemb led</w> 5
adorá vel</w> 5
buz ina</w> 5
not íci 5
desvi ando</w> 5
descas cando</w> 5
manequi m</w> 5
glaci er.</w> 5
palest r 5
fund ament 5
cavanha que</w> 5
vocal ist</w> 5
magni fying</w> 5
planíci e</w> 5
white -haired</w> 5
business man</w> 5
Moto ciclista</w> 5
occu pied</w> 5
quadricu lada</w> 5
pyrami d.</w> 5
Shir tless</w> 5
samura i</w> 5
Dançar inos</w> 5
utensíli os</w> 5
bê b 5
morn ing.</w> 5
Ath let 5
Spon geBob</w> 5
Group s</w> 5
Espec tadores</w> 5
repó r 5
masti ga</w> 5
makes hift</w> 5
champ ag 5
paralle l</w> 5
pego u</w> 5
acci dent</w> 5
perhap s</w> 5
moven do-se</w> 5
suba quá 5
cemit é 5
tempesta de</w> 5
b az 4
b re.</w> 4
b ins</w> 4
a k</w> 4
a f</w> 4
a cam 4
a con 4
a ch.</w> 4
a cas</w> 4
a head.</w> 4
a ".</w> 4
a mass 4
a ils</w> 4
a haw 4
r d</w> 4
r s.</w> 4
r ar.</w> 4
r ing,</w> 4
r âne 4
c l 4
c s</w> 4
c hos</w> 4
c es,</w> 4
o k</w> 4
o ra 4
o es</w> 4
o es.</w> 4
o la.</w> 4
o id</w> 4
o velha</w> 4
o ura</w> 4
o posta</w> 4
o cident 4
- side</w> 4
- looking</w> 4
- filled</w> 4
- sized</w> 4
- shaped</w> 4
p ro</w> 4
p per 4
p ite</w> 4
p run 4
p ans</w> 4
p esqu 4
p sco 4
i am</w> 4
i ers</w> 4
i sed</w> 4
i or.</w> 4
i zed</w> 4
i oi 4
l ando</w> 4
l ent 4
l is 4
l ha 4
l he</w> 4
l ush</w> 4
l inha.</w> 4
t ho 4
t ão</w> 4
t y.</w> 4
t ar.</w> 4
t win 4
t óri 4
t el.</w> 4
t ula</w> 4
t est</w> 4
t ish</w> 4
t ório</w> 4
m ely</w> 4
j ante</w> 4
j eta</w> 4
e u 4
e ;</w> 4
e ce</w> 4
e ds.</w> 4
e vil</w> 4
e ast</w> 4
e arth</w> 4
s se 4
s se</w> 4
s ly</w> 4
s pl 4
s as,</w> 4
s len 4
s pil 4
s lot</w> 4
s low 4
s pira 4
s lam</w> 4
s panish</w> 4
s cout</w> 4
n í 4
n uma</w> 4
n es</w> 4
n ing 4
n s,</w> 4
n acion 4
n ão,</w> 4
g n 4
g um</w> 4
g ão</w> 4
g rou 4
g ing 4
g row 4
g av 4
g ica</w> 4
g as,</w> 4
g way</w> 4
g ated</w> 4
g ême 4
g ila</w> 4
u sed</w> 4
u din 4
u gando</w> 4
u m,</w> 4
u m- 4
x as</w> 4
x ford</w> 4
f s</w> 4
f it 4
f itt 4
f ada</w> 4
f lado</w> 4
f ino</w> 4
f an.</w> 4
f ita.</w> 4
f ís 4
f letos</w> 4
d an 4
d al 4
d indo</w> 4
d ".</w> 4
d ados.</w> 4
d ger 4
v in</w> 4
v ir 4
v re.</w> 4
v are 4
v alley</w> 4
h it 4
h az 4
h ei 4
h ly</w> 4
R ad 4
R od 4
ç ar</w> 4
ç angas</w> 4
ê ni 4
á ,</w> 4
á s 4
á pi 4
z a 4
z inh 4
z one</w> 4
z els</w> 4
z enas</w> 4
V eg 4
í da</w> 4
í ni 4
í culo</w> 4
í vel.</w> 4
ã o 4
" L 4
" Bo 4
" Guitar</w> 4
w ic 4
w aring</w> 4
w ers</w> 4
w ant</w> 4
w hole</w> 4
w ades</w> 4
ó ti 4
1 8 4
1 4</w> 4
1 3</w> 4
1 95 4
0 s</w> 4
A ,</w> 4
A H 4
A K 4
A la 4
A bo 4
A di 4
A mp 4
A ran 4
A mi 4
A ni 4
F in 4
F un 4
F il 4
S co 4
S am 4
S pi 4
S pr 4
S hel 4
S ide</w> 4
S ton 4
S pace</w> 4
k s,</w> 4
k it</w> 4
k ely</w> 4
k itten</w> 4
D .</w> 4
D e</w> 4
D in 4
D res 4
D ame</w> 4
D avi 4
D uring</w> 4
D arth</w> 4
P r 4
P in 4
P el 4
P ab 4
é m,</w> 4
é is.</w> 4
M M 4
M el 4
M ani 4
M ari 4
C E 4
C . 4
C K 4
C ro 4
C li 4
C hi 4
C are 4
C ars</w> 4
C hal 4
C offe 4
G A 4
G la 4
G ap</w> 4
B el 4
B and 4
B row 4
B ron</w> 4
H el 4
H un 4
H or 4
H il 4
H and 4
H op 4
H ou 4
H isp 4
2 5 4
2 4</w> 4
T E 4
T ar 4
T im</w> 4
) .</w> 4
U . 4
E i 4
E merg 4
y or 4
y on 4
y o.</w> 4
y er.</w> 4
y our</w> 4
y ant</w> 4
y o- 4
W .</w> 4
W et</w> 4
W ith</w> 4
I - 4
I magem</w> 4
I doso</w> 4
Y an 4
Y ou</w> 4
Y MC 4
L este</w> 4
J es 4
J am 4
J im 4
K e 4
K ar 4
K le 4
K aw 4
6 .</w> 4
6 3</w> 4
O lh 4
O xford</w> 4
X X 4
3 rd</w> 4
Z un 4
Q U 4
in - 4
in z 4
in t</w> 4
in co 4
in age</w> 4
in ess</w> 4
in line</w> 4
in feli 4
in coming</w> 4
in doors</w> 4
in formal 4
in scri 4
in spira 4
an k 4
an y.</w> 4
an a,</w> 4
an os,</w> 4
an éis</w> 4
ar a 4
ar em</w> 4
ar qu 4
ar ing.</w> 4
ar ter 4
ar que 4
ar gila</w> 4
es )</w> 4
es par 4
es ar</w> 4
es mal 4
es vo 4
es cape</w> 4
en e 4
en h 4
en for 4
en ci 4
en lu 4
en vel 4
en contra</w> 4
en gage</w> 4
en ergi 4
co to 4
co al</w> 4
co ro.</w> 4
co chi 4
co pos.</w> 4
er - 4
er skier</w> 4
er e's</w> 4
ho - 4
ho no 4
ho mas</w> 4
ho psco 4
re ti 4
re ira</w> 4
re lu 4
re dd 4
re bel 4
re almente</w> 4
re mo.</w> 4
re turning</w> 4
re tail</w> 4
re iro.</w> 4
ca ts</w> 4
ca uti 4
ca ge.</w> 4
ca dor.</w> 4
ro ping</w> 4
ro cking</w> 4
ro pe,</w> 4
it es</w> 4
it et 4
it as.</w> 4
it o,</w> 4
it em.</w> 4
ma c</w> 4
ma ca 4
ma ver 4
ma quin 4
ma tes</w> 4
th ese</w> 4
est o 4
est e 4
est atu 4
est ern</w> 4
al er 4
al om</w> 4
al vo</w> 4
al tos.</w> 4
al ças</w> 4
st ance</w> 4
st arts</w> 4
st acking</w> 4
la c</w> 4
la w</w> 4
la do 4
la ção</w> 4
la ble</w> 4
la do,</w> 4
la tindo</w> 4
la ma,</w> 4
la sso 4
la deira.</w> 4
la je</w> 4
do ce</w> 4
do ugh 4
do od 4
ra g</w> 4
ra is</w> 4
ra ch 4
ra di 4
ra ge</w> 4
ra m.</w> 4
ra quet 4
ra mo</w> 4
ra bos</w> 4
el o.</w> 4
el der</w> 4
el os,</w> 4
ri a</w> 4
ri c</w> 4
ri da</w> 4
ri em.</w> 4
ri se.</w> 4
ri ous</w> 4
ri dding</w> 4
un ha</w> 4
un seen</w> 4
un paved</w> 4
un packing</w> 4
un known</w> 4
lo b 4
lo t 4
lo s.</w> 4
lo st</w> 4
lo wing</w> 4
lo w.</w> 4
lo gs.</w> 4
lo tada</w> 4
lo vely</w> 4
ir reg 4
ul d</w> 4
ul as</w> 4
ul l.</w> 4
ent rela 4
qu er</w> 4
qu et.</w> 4
qu entes</w> 4
qu ick</w> 4
at v</w> 4
at ers</w> 4
at ira</w> 4
at a,</w> 4
at as.</w> 4
bo b 4
bo ate</w> 4
so branc 4
so up</w> 4
so lar</w> 4
so cks,</w> 4
ch an 4
ch ing.</w> 4
ch in.</w> 4
ch ig 4
ch ested</w> 4
et a,</w> 4
ic u 4
ic e- 4
par es</w> 4
par ar</w> 4
par adas.</w> 4
par aram</w> 4
par ents.</w> 4
or ders</w> 4
ad er</w> 4
to e</w> 4
to w</w> 4
to ne 4
to po.</w> 4
to ras.</w> 4
to chas</w> 4
to mate</w> 4
to cava</w> 4
to alhas</w> 4
se es</w> 4
se ment 4
se cre 4
se d,</w> 4
se car.</w> 4
se wing.</w> 4
pe dre 4
pe eling</w> 4
on e 4
on s,</w> 4
on du 4
cam e</w> 4
cam pos</w> 4
cam pistas</w> 4
cam panha</w> 4
ru gs</w> 4
ru g.</w> 4
ru bbl 4
il s.</w> 4
and ing</w> 4
ac tion.</w> 4
ac inz 4
si p</w> 4
si dade</w> 4
si vo</w> 4
si des.</w> 4
po p</w> 4
po li 4
po mer 4
po usando</w> 4
po ly</w> 4
po kes</w> 4
po eira.</w> 4
po bre 4
po tted</w> 4
po pula 4
po ised</w> 4
ver duras.</w> 4
is s 4
is er</w> 4
me et</w> 4
br inging</w> 4
pla ting</w> 4
pla ce,</w> 4
ol es</w> 4
ol li 4
ol hos,</w> 4
ol der,</w> 4
be ards</w> 4
be gging</w> 4
be ard.</w> 4
be ams</w> 4
be yon 4
sh u 4
sh i</w> 4
sh it</w> 4
li p</w> 4
li fe 4
li ps</w> 4
li ps.</w> 4
li kely</w> 4
esso s.</w> 4
jo ,</w> 4
de cal 4
de mais</w> 4
de us</w> 4
de iras</w> 4
de d,</w> 4
de mol 4
de la,</w> 4
de pó 4
gu es</w> 4
gu ed</w> 4
gu ei 4
gu id 4
gu ia.</w> 4
we b</w> 4
we ar.</w> 4
we ird</w> 4
pesso al</w> 4
pesso a,</w> 4
hor ns</w> 4
bal ão.</w> 4
bal sa</w> 4
bal ões.</w> 4
di am 4
di os</w> 4
di plo 4
di dger 4
as a 4
as sun 4
as cent 4
rou s</w> 4
rou sly</w> 4
car ,</w> 4
car s,</w> 4
car pin 4
car go</w> 4
car av 4
car ts.</w> 4
car ros,</w> 4
car pet 4
ne y</w> 4
ne gra 4
ne ar.</w> 4
ti p</w> 4
ti rol 4
ti ps</w> 4
ti ger</w> 4
ti e- 4
ti more</w> 4
fo to 4
fo ge</w> 4
fo co</w> 4
fo ram</w> 4
fo sse</w> 4
ta cos</w> 4
ta g.</w> 4
ta ste</w> 4
ta dos.</w> 4
ta il.</w> 4
ta gged</w> 4
ta sting</w> 4
per m 4
per ing</w> 4
per di 4
per fu 4
per cus 4
per ple 4
per sons</w> 4
per nas.</w> 4
le "</w> 4
le an</w> 4
le ão.</w> 4
le vel</w> 4
le itura</w> 4
mp ing</w> 4
play ers.</w> 4
sent ar</w> 4
pre go</w> 4
pre tending</w> 4
anc o</w> 4
gra p 4
gra fo 4
gra des.</w> 4
gra vel.</w> 4
for t</w> 4
for te 4
for ni 4
for rada</w> 4
for ces</w> 4
for tun 4
for mers</w> 4
cor .</w> 4
cor po 4
cor es.</w> 4
cor ds</w> 4
ci v 4
ci da.</w> 4
ap ito.</w> 4
ap esar</w> 4
Th ere's</w> 4
con su 4
con ta</w> 4
con ces 4
con str 4
con verti 4
ant s.</w> 4
mo ting</w> 4
mo ver</w> 4
mo tos</w> 4
mo sa</w> 4
mo sai 4
mo ças</w> 4
mo wer</w> 4
mo radores</w> 4
su c 4
su st 4
su ado</w> 4
su re.</w> 4
su mo</w> 4
su cking</w> 4
su jo.</w> 4
su shi</w> 4
stand ,</w> 4
stand s.</w> 4
gir ls.</w> 4
tra z 4
tra ys</w> 4
bla de</w> 4
res er 4
res ses</w> 4
vi rado</w> 4
vi me.</w> 4
vi agem.</w> 4
vi etnam 4
vi adu 4
ai d</w> 4
Do o</w> 4
gar bag 4
gar den 4
jog ando.</w> 4
lar g 4
lar s</w> 4
lar eira</w> 4
hol ding.</w> 4
ack .</w> 4
mar í 4
mar av 4
mar ches</w> 4
mar cado</w> 4
mar cen 4
mar inho.</w> 4
mar ido</w> 4
mar cador</w> 4
mar acas</w> 4
segur o</w> 4
segur ando.</w> 4
bu o 4
fi cada</w> 4
fi sta.</w> 4
fi cador</w> 4
cu bic 4
cu rious</w> 4
let s</w> 4
let ters</w> 4
ag ing</w> 4
caminh a.</w> 4
caminh ar</w> 4
no me</w> 4
no ss 4
no tes</w> 4
no tes.</w> 4
cal en 4
cal mas</w> 4
cal f.</w> 4
fr al 4
fr itas</w> 4
sk e 4
sk elet 4
bi f 4
bi chin 4
te xt</w> 4
pi cos</w> 4
pi gg 4
pi cal</w> 4
pi pes</w> 4
pi quete</w> 4
pi pas</w> 4
pi poca</w> 4
ran do.</w> 4
bol ha.</w> 4
bol so.</w> 4
bol inhas.</w> 4
bol sas.</w> 4
bic hos</w> 4
pa stri 4
pa ws</w> 4
garo tos</w> 4
ju i 4
her o</w> 4
her e.</w> 4
pas sou</w> 4
brin car 4
des emp 4
des cent 4
des cri 4
des cer.</w> 4
des pite</w> 4
wa its.</w> 4
sho p,</w> 4
águ as.</w> 4
lon ge,</w> 4
lon ely</w> 4
bro .</w> 4
bro oms</w> 4
bar king</w> 4
bar ra.</w> 4
bar -b 4
pra tos.</w> 4
wor d</w> 4
wor ds</w> 4
comp leta</w> 4
mi do</w> 4
mi gra 4
mi çangas</w> 4
ter ra 4
ter râne 4
corr er.</w> 4
corr ente.</w> 4
ba k 4
ba y.</w> 4
pin e 4
pin os</w> 4
pin k.</w> 4
pin cel 4
pin turas</w> 4
cas as.</w> 4
cas al,</w> 4
pul aram</w> 4
mal hado</w> 4
man tos</w> 4
pro i 4
pro gra 4
pro cla 4
pro movendo</w> 4
pro ble 4
pro moting</w> 4
ment e,</w> 4
ve m.</w> 4
ve is,</w> 4
hi kes</w> 4
hi ke.</w> 4
hi stas</w> 4
biciclet as,</w> 4
fe itas</w> 4
flo ppy</w> 4
ser eia</w> 4
ser ved</w> 4
[...]
